node {
  name: "Placeholder"
  op: "Placeholder"
  attr {
    key: "dtype"
    value {
      type: DT_STRING
    }
  }
  attr {
    key: "shape"
    value {
      shape {
      }
    }
  }
}
node {
  name: "IteratorFromStringHandle"
  op: "IteratorFromStringHandle"
  input: "Placeholder"
  attr {
    key: "output_shapes"
    value {
      list {
        shape {
          dim {
            size: -1
          }
          dim {
            size: 50
          }
          dim {
            size: 50
          }
          dim {
            size: 3
          }
        }
        shape {
          dim {
            size: -1
          }
        }
        shape {
          dim {
            size: -1
          }
        }
        shape {
          dim {
            size: -1
          }
        }
        shape {
          dim {
            size: -1
          }
        }
      }
    }
  }
  attr {
    key: "output_types"
    value {
      list {
        type: DT_FLOAT
        type: DT_DOUBLE
        type: DT_DOUBLE
        type: DT_DOUBLE
        type: DT_DOUBLE
      }
    }
  }
}
node {
  name: "IteratorGetNext"
  op: "IteratorGetNext"
  input: "IteratorFromStringHandle"
  attr {
    key: "output_shapes"
    value {
      list {
        shape {
          dim {
            size: -1
          }
          dim {
            size: 50
          }
          dim {
            size: 50
          }
          dim {
            size: 3
          }
        }
        shape {
          dim {
            size: -1
          }
        }
        shape {
          dim {
            size: -1
          }
        }
        shape {
          dim {
            size: -1
          }
        }
        shape {
          dim {
            size: -1
          }
        }
      }
    }
  }
  attr {
    key: "output_types"
    value {
      list {
        type: DT_FLOAT
        type: DT_DOUBLE
        type: DT_DOUBLE
        type: DT_DOUBLE
        type: DT_DOUBLE
      }
    }
  }
}
node {
  name: "training/input"
  op: "Const"
  attr {
    key: "dtype"
    value {
      type: DT_BOOL
    }
  }
  attr {
    key: "value"
    value {
      tensor {
        dtype: DT_BOOL
        tensor_shape {
        }
        bool_val: true
      }
    }
  }
}
node {
  name: "training"
  op: "PlaceholderWithDefault"
  input: "training/input"
  attr {
    key: "dtype"
    value {
      type: DT_BOOL
    }
  }
  attr {
    key: "shape"
    value {
      shape {
      }
    }
  }
}
node {
  name: "img"
  op: "PlaceholderWithDefault"
  input: "IteratorGetNext"
  attr {
    key: "dtype"
    value {
      type: DT_FLOAT
    }
  }
  attr {
    key: "shape"
    value {
      shape {
        dim {
          size: -1
        }
        dim {
          size: 50
        }
        dim {
          size: 50
        }
        dim {
          size: 3
        }
      }
    }
  }
}
node {
  name: "conv2d/kernel"
  op: "Const"
  attr {
    key: "dtype"
    value {
      type: DT_FLOAT
    }
  }
  attr {
    key: "value"
    value {
      tensor {
        dtype: DT_FLOAT
        tensor_shape {
          dim {
            size: 9
          }
          dim {
            size: 9
          }
          dim {
            size: 3
          }
          dim {
            size: 8
          }
        }
        tensor_content: "L\266b=\010\302\234\274(i\313\274\327\"\206\275\033\364a=P,\263\275\260\305N\275E&\341<\n\313\261<\360w\214=\224\366\303<\370\332\201=#e\231\275\037\352\005=\3200\205=\265\013\320<2\036\'=\234wj=i;\333<a\035\211=w5><\370#U=\360\2101\275\332\300\006\275\016)(=\322\314\374\275\303(\030=\315\266g\275\330k\261=\273\\\243\274\235\017\251\274ez%=\325\357\024=\272|\005\275\207\3238\275\360\021\207=\344\213\337\274\033B\255\275\361\207/<\232\3260<\200(\025=\315\373\336=\241yV;vs\225\275\234\010/\275\330\335\233\275\343C\217<dH\210<Vj\'=\336\345\221\275\347\205\242<\262GD\275B\251\211<\026\371\020=ck\201<\213\252]=\245\005\305\274R\322\233\275\013[\321\274\177\210\316<=\003 ;\274\0263<\024\035\022\275\0331\034=N\035\202\274B/:=\004\254\213\271\307r\351\274{\310k\275@\321\263=\266\256\027<\022u\206\275a^\244\275\242\371\367\275\316\241\003=C\255S\274\010\306\246\274\026\275\220=\374\325\206\2757\312\331<<qt\274\377\2627=\263l\002\275\252\363\344<\366\004\273<\023l6=MG\016=tT@<\036r\346\274h\320T=\343\367t\274\342\202\212\275\234\343w:a\202\031<\317\367\302<\222Vg\275\356\364\222\275\216\360\207<\257r:\275\326M\366\275\0059\274\274$\252\275\274R{\347\275\3062i=LJ\274\272\3415\241\272\276\334l=l\333\323<C\366\202<\266\227\014\274\374>\245<\232\001\370\274\335\270I\275+\233u<\2205|:p\245I\2754P\366\274\232r<\275L*\233=L\2437\274\001*\361\275\251\251a=t\273\001\275\226q\255\275+\276\265\275@\367\220\274EL\n\275|\023w=I\333\341\275\331\215\201=\267\025\301\274\337v=\275T\263\270=\362[^\275\301\341a\274\005\331<\273C\225\266\273\302:{=\204\334\237<\374\322\224<\220X\330<\317\333\017\2750\241O;\277\353T\2746 \301\275f\315y\272\036\242c\274\236\004\244\275K@\204<\200\304\221=a\372\206<\334\261T=a)\212\275\0007\217\273\006\366\275\272{\220\n\275\253\207\240=\007 \227=}\374\241\274\024X\354\274\242\0173\274\311\216A=\246T\022=D\225\327<\0238\000\275\2577\242=c\373\t<\374\276L:\251\312\366\274\\\300\327<\325hx\275`N\353\275\263;\224\2759[\251\274\325\227\226\274L.\020=\021\260c\275\rt3\275 m\341\274Z:;=l\215q=r\344\300=\375\265\355\274\257\210\304\274\252\306\303<@\3414\275\010|^:\254\300\225<qn\363\2753aP<\230\317\025=\334c\357\274f\217\200\275\335\345\261<.x\231<\255\215\237\275\203\366\253<\366\304\376<\240\350\252\275\236\026C=A\260\327<5\236\036\275\356\242\372<\010WG<\"Jl=\266.\027\275\023\020G=\260t\205<\375\321\244=\33192\275\240&V;\032\343\2609\361\266f<z\3657=H\025\027=\342\345\315\275\206X\370<\027\277\356\273L-\n=\212D\025\275\240\346\266=@\252\244\275\010\335y\2751\220\032\274\257\355|\274\371\326L=_\302\202\274\271p\343\274\211\367g\275v\037f<Jy\302\274\253k\257\275\3478b=\263\216#=\203\221\223\274{\027\366<U\030\025\275\244\010j\274\241<|=\ndQ\275[2N=\307S\013\276i\247\224<}\262\277\275\004\214\017=\206\221l\275\233i1\275#\005\025\274\017\245\350=wn\265<\305\351\r\273\311Iv\274\223X\251\272\272N6\275\233\003\232=\354:\265\275<O >\364\243\010<[QN=\315!\255\273F|\202<K;\356\274X\262\254\274\200\324\377\275\323\340/>*\302\006\276\"%\232\2743\214\234\275\035$\230\273\366\241\304\275]\266\310<\034bH=\365\244\271=\366B\236<\016&4\274\356\007\361\273m\350\312\273*\254\220\275\271a\271\274-\261\037\275ur\367=\314d#\275\351\261\021\274K\231]\275\241\035\"\275-\031V=\257\254j<\003\352,\2752\303\006=\347\217\310\273\205;\032\275se \275B\021\020=\014<\206=M-\211=\274\023\027=\231S\312=\364\023\022=\220\177\274=\' =\275-kv=\023,\371=\276\350J\272u\"\026=\302\340u<\226*\326\274[\022\361<\327\035\207\275!Ma\275\344\000>\273\354D~\275\033!\271=\305\237\237\274N>-<\034\241`\275#\r\244\275\017U\362\275\206\220\215=\370\206\303=\213\264\334=\000\301\305:\317\254\035\275(4k\275\365g<=\2624a\274i\216\247\275\304 X\275C\010\246=\000\007\020>{P\306;\224>\371\274\320\355\002\275\007\212\247\2756\2579\275R\303#\275\247\325h<.\376L=\030]\300\275\036uk\275\213\305\n<X\227\343<6\2515\274i\354\204\274\212\017\t>^\312\363\275\212\275\r\2757w,=y\273.<\223\205\263=\027\233\232<\376kE\275\356\202\010=\316\034n;\022\'\264\274\3437\035=\312!?<6r\312=$n\323\274\374B\027=\357tp\274ch\005=\344)\333\270WZ\213<`[\307\274\237\332Z\275\244v\005=\326\266\337:\215\233\023=|j\210<\300i\016=\317\373\237\275\275\007\237:);\223=\263e1\275\003\323\200\275\373j$\273\023\356\216\275)\247\t\275\364\'\275<\235fk=\326\314\325\275\005n+\275FV\251:\352z\200=\234h\305\274\327\354\242=\312\3240=\032s\021={4z=3\225&=\250\336\241\275L0\263=\260\220R\275_A\233=\310\203\240<\325\0300=\347\340\336= \320\331=A\363\002<\324\303w=\265\361.\275\3503p;\031_\260\275\202\2647\275\2248Y=\230]\205=]\356\251=\375\177P\275\325\350M=\263U\206=\376l\220=\250\024\224=\316/6\273\277\206p<]-\214\275\217m:=\373}\010\274\264N\005=\304Z_\274\004L\352\274\374\356\242\275\034\365\037\275\023\377\223<\010CK=\306h\207=\206j\374=\005U|<!\251\251\274\251\227\330\275\327+\377=;\250\207</ND\2756Z\243<K\342L\273O\337\375=$\3701\274\366\310\035;\212\201\302\275V\031\\\271$\330B=\304\265:\275\014)\365\274\3219\273\273\265fG\274h\350=\275 \333M=\021A\256\274{\220\022>\245\022W\275\265\304\324<\035:\210\275h_\234\275\241$!=\331\002\001>\213\246\002\275cR\006=\302C\243=\316<\\\275\356\215\303\274\230\031\021\273v\371\220=\325nE<_p\241=\036\240\r>\236L>\274\000\216\325\274zO\211\275u\200\225\275\202\025\312\274q6y\274\375\3674\274\211\326\026>\337\230\030>y,(=\r\244s\273\345\251\316\274\251\026P\275\320\262\312\274G\312\357\274T\246\014>\312\236Z>\303\320t\274\3773\240=7\002\033\275V\341\303=Fv\357\275\245\\\330=\244\020\276=^\215\325=\033\351j=e\324\260=+G\312:\013\222\245;12\307\275\2231(\274\265\344\205=\267\372G>\216\263t\275`\277#=\212(p\275Sh\274\275\246\375\177\275\020\301\203\275\342\0135>\255\026L>\024\305\321\275\326U\345\274\356\215e\274\350a\303:\326\375\305=$\311\000=0\303\275\273\334/&>\225\357\234\275FM\320\274\225\345\022\275\r\202\215=I\330\360\273\324J \275(\252\036<\023\275\270=I\272\265\275K_\335<\316X\240;?\322\362\275\'\361\005\275\350\304\221=\2577\245=\271<\263=_13\276~4\031\276\236>\251=\243\340\233\274\325\027\005\275]\274\245=\223#\334\274\344\314,=\225o\242\275y\031\237\274Q\010\267\274\220\230\352<\361w\246;\253\001\216\275\023\210\325\273\345*/>c\037\253<\274yx\275\334\222\202\274\000\010N\275+5\026= \032\221<\205\271\367\274\234\005\324=n\302\010\275\306\236\231\275\313\266\250<\242g\"\276>9\213\274\303\323\263=v\357\313\275:\027\307=S@\236\2755c\022=\226$N\274\255\001\374=\t\222z\275\373yG\2753-\204\272\177k\312=j\036\215;\253\312\201<\222D\177<\017J\371\274y6\217\275\266_(\275\026\333}=\362E%=\354\007\264\275\340\020r<\007\014\226=\177=\207\274\301~\206=\006\033\006\275\035\241\242\275[\316s=\035\030X<\261\2073=M\267\247\274\305\340\211=e\355\224<\376[\344\274\300C\247;\253\000\030>\301\245\222\275\001\010\211\274hD0\274\307\247\347=k\213l<\271nQ=\241\353\212=Q\277\307=gVN=\353\352E=m\020\270=\366\013\235\275\t\2557\275\023\236\263\274C\205N\275\216d\247<<\314\374<HX#=\355\2131\275\253\216\301<\243b\314<\034\020<\275\374\002\315\274\204\267\332\273\321\300\207=\374~0\275\252\226\214=]\366n<I\017\207=\374\001\004=/\337\210=`\354:=\334\"k\275\026?\344<\216g\017\275\361\372\274=\326\267\205=`]\211=\265&\340\273\327\014\253=\274y\205=\275\2371\275\320\317C=\230?4\275\013\007\001=\014~1\275\357\274\023=W\334\221=1\000\213<\370g0=>\341t=\252F\311\275c\n\241=\237\245a\274)\230\035;\304e9\276n\010\210\275\261g\234=2\3076=\253`\241\273gfL<~\313V=\033Y0\275\337\217!\276\030i\223=\257\305W\275\224\303\216\275\232u\310\274F\017\002=\212J\227\275\207\341\221\275\350\330\016\276N\225\211=\223\317\232\275\344B9\274\005\276\325\273Tgw=\274Dq\274\212\211\030=>\252\021\274\235\301\004\274\263\016\035\274\364\305\366<\366,\226:_\346\247\275\201\230\n<\332\240=\276o\013\255\275\272\255\201\274\033\234\355\274^\244\305\2734)\006\275?1\237\274\222z\321\275\326\262\304\275\030\033\366\275<\315\211\2755D\264<\026\027\225\274|\272\207=\232\353\230=-P\005<=>\030\2757\233\265=\005\277\224\275\315\207\320=\n\002\263<\352N\201=v\314\253<\247\023\017>\'\023=\276\342\267\001\276\232:W=\327p\362=\343\325\037\275!\346:;\232\267P\273\004\265\226\275\251p\024\276\347\255\302\275\tj\220<\217\202\312=\nh[<\013\277\312\275\177X\250\274\325\317\277\274\031\240\027\276\001\347\025>\206\231\210\275\340?\376\2758\026\235=\000\221\010<\3744H=\023p9>D\240G\276k\033I=\313\022 =\210\266`<\310\336s\275\212\306\317=\r\231\017=4}\003\276\327\266\031\276\001w\007\274\344\353&\274\201f\016<Q\341z=\331d}=.P\033\276\351\035i<\354&\262\275\024\005\\<\320B\255<\256\331:\276\340q\343=\345}\016\276\367\336\235\273\234:\t>\014\357P\276\353\234\353\275/\3055\274\245\017\006\276:\267(\274\267Y4=\270\3657<[\333\265\275k52\275\344G\340<\374\200Z\275[\222\003\276\'\031\200=\377\020\330\275\214\354\262\274)\313\304;\370H\360\275g\352\024=M\203\250\275\326:\006\2754R\251=\031a:\276\277D\226=_\206\237=\031\003(\276\266\261\307\275\027\211+=S\231\340=\344p\002>\331\030\225=\232O9\275;[\341\273\030D\r\276\356\212\322\275Jy\r\2755L\325=\025S\303;V\335\"\275\313T\267\275P\004m\275\203\336\242\275\343\350\230\275\247\316\320\275\271\316\211=\253>\033>\270\221\222\274\272\\\026\275F\203\014>=3\367\275G\274\220\274%w\257<\272\004I\275\220\201\276=\241\333\366=\2122\t\275*\"\352\274\243\227\000\276\302\342\244\275\333\371\377\274\201/Q\275\035\241\271<\365(\267=k\312\032<o\347\275\275\026}\230\275\276\317y\275\203\261>=\306\262\320=P\204\020>b\226$=\325\033\022<\252\224A=l\233\005\276\346U\340\275\330OQ=)\340\225\274\000@\250\2739\362\330<\223\276\232=9JF\275t\231\003\275\204\023\325\274v\216G\275\003\203Y=1i\214=\351\377\207=%\022\275\275@/\240\274~\203x<\254\344\313\274\372%\274<\351\000\214<x\316\202<L\265\244=+[\213<\334\355\317;\027a\247\275A\345\013\276\254\254\252=5\231\215\274\205\303*=\234?\221\275a\263\025\275\322\024\241\273\246\243O\275;]t\275\336\325\323=(D\214\274\347\237\301\273\256P\t\276\247\235\300\273\201\360\342<e#\307<\004\264\213\275>\023\275\275s^\327\274/$J=\347;\200=R\233s=\257\222H=\327\343\212\275B\027\363\275\310\2425\275t\251\214\275=\200!<(Z\n=\205\202\346=v\306\035\274\266hD\275\024\234\223\274\231\365\245\275\257v+;\305#n<\333\264\006;\273\212\t>d\000\227\274C\271\227\275\340\2644:U\330\313\275\236G\216=\313\337v=\224R\344\274>G\253\275\246X\254<\200xc\275\241\031\266\274^\256\033\275=\005\317\273\346\220\177=\325O\257\275\326\360Z<\265\310\364\274\207\226g\275\253a\332\275\227ei=\262e\232<\306/m\2753>\211\275U!\224\274\233\004\227\275\314\206\362\273\345c(\275v\340\225\275/\004\351=9N#>~\374\277\275a8\201=c\326\237=$]\255\275M\024p\275\224\226\337\274b\302\262=\3641S\274+i0=\324t\235=C\376\302\275\372+&=\213S\000<C\361.\275|\372\n>\247\236M=5\206\224=HR\n=\365\242\244\274\232\273\214<\203e\356\274\327\263\241\275\277X!\276,c8>\240\304\213=\275\353\242=\\N:>\355\032E\275\3471f=y0\030=\000\240\242\275\371\340\236=\332\231\004>\0257\212\275@c\375\2753\261\355<\346\215\312=\024\204\266\275h\230\256\275Sb\330=\365\253g\274\356\361\353\275\235\363\205\274\256\363\263=\006\\\356=\336\036\261\275\227\222\004\276\367\037x>\024\035?\275t\336\237=9\364`>}i\207=\325\211\216=n1\222\271F\303\340\275\206\354\324=\262|\316=\374\254\250\275\304J\002\276g\353\032=\314\316\212=\316\262\003\275\262\370\210;\257\315p=V\304];\257+8<\243\000g\275\300D\021>\3474q;s8\256\273\317O\202=\017.\201>\3339\005\276\014\"\216=b\2646>\005\207\247=\254W9=\036*\274\275\276F\3679\337\330\203=t\262h<\n\234\026=\223\230,\276\331\250+>\201(\004=\332Zl\275\312u\000;nU\315<#\224\037\275\324\331\331\275\2650\346;\030]\204=U$\030\274\037!\241\275\036\314#\274\273\023\301=\377m(\276\206\263\311=P\232\323=\337\303\265=\237\260\326\274i\326\252\274WH\003=N\367\310=H\017\204\275\301!l\2753\223C\275\210\007\373=]}\214<\202f\226\275\004\231\365<\206(-=\345\326\316\275\354\213\273\275\013\235z\275^E}=\326\037\017==\'\006\276-_\330=\217\004\315=\346\366\336=\0235\003\275\337\204\243<\200\336(\275\365\312\357;I]\016\276\223\274@=\323\262\325\274A\230\024>\333\016\206\275|8\211\275|\226\023>N\310\203=V\374\231\275&gQ=}\375M\274X\362+>\225u\235\275\361\354\n=\203\t\013=\262\244L\275\002IL=s\352\325<K6\r=\350\357~<c\323\247\274\355N\210=\343\261o\275Y\nF\274\007\036\t=\240\367\331\273\205\226O\274z\314\310\274\370b\031;\356\222\360\275\336P\246=  \007\275\tE\207\273\374u\007\276\245Y\200\275u\321Y<r\342\025\276\374A\022=\313\310.=_\326\253\275\252,\t\276\t\253\216=\256\203O=\245\234\005>\260*$<\265\263\016=]\317p:\376?\202\275\215\320L\275\256\241\372\275\030\262\214<\316\020k\275\267\007\001>\177\2117=\005\272\272=\271\242M<r\207\304<{\023\000\275q\304\337\274\342\375\211\274\024\000\017>\273\343\023\275GJ\252=\034i\177\275\212\021\005\276\361(\014=\254\341\315=\367\261+\274P\3111=?[\004=\234.i=\224\220\014\276\355\017\300\274r\345\220=%y\300<o\227\255\275\214L\323\274\300Lc\275-\244\313<\240#\315\273\275_\240\275^ \030=9\035\017\273\351|s\275\363\321\352<\241\354\206\273\262\017\010>\020\263(=U\205\226\274>\246\204=\334\021\037>\273\355\267=k\353\036=\260\001\000>NT\331=\333\2020\275\346\220U<\300R\265=u\211&\275w\237\355=\366O\250=\330\\\315\275`\324\306=\"5\245\275\335\306\360<\026\000\235=b|V<B8f=\252\201\206\274C\251\322\274\366N\206=K!\243<o\001\001=\267dY\276\242\205\247=1\240\025\276[Ec=\242}n=\016\341\310=\325\222\030=\314>\326<\204=N\274\242\275|\274\272\036\356\273\033s\373\274S\300\356\274&m\222=|\037\212\275\225\224\221\274\301\210\023\276\342\2156=\221\207\316\274\330\000\266\273%\2641<\027\266l;0GZ=\244\353\262\275\206?\343\275XC\243=\222\330\315\275\270_\014:\334S\225=\300\233A\275\243`\256<\024\375\246\274\006\341\216\275yv4\274\315>$>2\254\340\274\2279L\275X\320\014=\214\200\230=\244A\224\275\240\233U<\251\307]<\371\350\367=\013)\275\274|>\376;\371\225\003\2759m\252=\027\016\215\275\267\242\001=\212\205L=\252\204\274\275\333E\005>4;\004>qb\014\276\350sS<\331\237\304\274\307,\353=\332\233m\275\177\363\215=\346\347B=\021\017\027\276\351\001\233<\237S\206=\371hX<\022(Y<p\200\306<\002\027\312=u(\353\273k\027\314<(M\212\274\333!\212=y\263\323\274e9\001=\267\373,\274\017`h\276,>\036=\036[3=D\277\305\274\366\310\246\275\311\323\253\275I\266\347\274i\210\007\275\373}\263\274U\241\001\275\374zv\275\036\017\334\275\020\324\034\2704\216\024\276\201h\277\274P\322\266\274V\337\231;\235$\322\275\305\236\264\275\276\363}\275 [x=\314.\251\2745s\354=e\231\271\275-+t\275\317\320~\274\314\363O=\241\201\014<(%\241=\345\023\332\275P\211\023>t\216\211\275_V\203=\364\223\244\274K\3471\276s}P\275\007\032\217=\373*F\275\317\337M\274\246\327x\275\332\002\304:\262\003\033\276\026\370\267;\005\031\327\275=b\200\275\010\244\273\275\005MD\275\233+\264\275F\364\214=[\266\344\275F\005\232\275\227\037\337\274\243\276\t\275\374{\301\275\353J\260\275\200S6\275\211R\203;\327\302\262\275\302\2131\275R\022Q\275\330\240\020\275\276\270\315\275`\n\026\275\346\255\243\275\273\037\006=z\311/\276\377\2717<\330\rH\275\310\343\006=\252\016\006<p\273)=\363\372\023\274md\211:\332\301\266\275\276\213`\275\034\361\010\275\332,.=\206\305x<\017\373\323\274\377P\006<\203.\300\275O\340\022=\361\307D\275\022\020\323\274d_\t\275\271\266\200<\035\226Z\274\343\343\342\275t\262\303<|m\006>\267\007\245=\n(Q\274R\r\253\274\014\334\326<\215n|\2743\032\211=\234\364\301=\003\007\007=\366]9;\nC\271;\365h\372\275Wq\001=\246\242\200\274\210\005\251\275\0219\202<t\010\316=\350m\305\275-\331\007\275vJ\247\275E\nk={\375\317<j\254\234\275\357\374(=HPD=s\232\264\274R\374\241\275\025\021\260;\204a\231\275s\205\232=\262\026:\274d\001\321\2745\352\014<\213\241\267<Z\246[\275\247j=<\r\317\331\273y\"\357=~M+=&w\262\274V\333\324\274\336\227*\275\365ry\275\202\036\312\275\270\261\007\274\2352\247=\202\230\264\275\333\214\365\275\023?a=\3745M\275\017\374\031<3\340\004=R\221c\275!GU\276\271\342a\275A\267N\275\275/\227<\343\274\275=MC\031<f\230\327\2751w$<\245Q\342\275\240\260W\275\322\003\261\274\017\215\245=1G\315\275\300\'\024\275\331\321\253\275z\376\014\274\250q\005\276W\016v=\217\343\344<\200\326\251\275\353aT=C\023\010\274\227\374}=\344\223\261\275_\245\r\274~\334\375\274\202vM<a\177\'=0 \353=\277\253\231=\356z)=^C\245=\361\371\266\274e|\202\275\240_\014>\"\212T=\3169\373<\322\355\034=\375\010\310\2757\256\005\275\205\374\240=\311W\007\275\206L\252= \242\373\274OaF=\375\246!\275\256yk=p\267\"=\270\205\215;\203\304\272\275\035J\022\276\256\223\273<=[\004>\345y\013>\256:\350;c\363m=3\202\324=\232\304\321\275!(\244<E9O\275w\324\373;\3509\202\272O\024\237\275\005\r\022\275QT\234\274G\342f\275\324}\267=ef*=\263\211\352=\220yB\275@\232$<\243X\300<Q\327\372<\245O\026\2767 \035\276\310P\032=\035\343\352=\030\231\000\274\325x\371<\214\235\033=Z\364\217\274\031\217\031\276d\310+=\274\262\305\275\000\033\206;\246f\203=M\314\336\272\323X\220<\371\260\340\274\243\r*\276\274T3=\343\360\250\275s\327\t>hfd=\367V\242\275\257\354\330\275\370g\006>\003|F\276)D\322\274:-f\275\324\204\302=\340\261\364=\263\203\233=I>K\275\222\\\r\275\0023\266\275.\331%=\345\253\317\273\330\024@=\306\326\211\274\341\241\235\275\360\305^<2\333\220=\026\335\030\276\334\325\217\275\024!\026\276\317\246H<\024\357\313\273v\300\261<\000\016\310\275\227\300s\275\2424\204\275\036J\304\273\353\010\247\275\250\3574=\240w\256=\311\017N=\361R[\275j\212\337\273\034u\263\275d\362d=j\221\002\276\000\344\037<\014\343+\2756>\310\274Ub\235\275\311\312m\275\232\234\244\275{(F\2753)\214\275n\331q=R\007/=\374O\305=\005\232W=\022YX=\256\23309a\273a\275>s\366\274\276k\315\275\314_\340<\262\206\346<M:\331:B(\031<\263\356>\275\034N\322\2743t_=\003\340\334=\363Dh<\t\'\032\274Z1\265=DwN<\315\322.<\325\263\016<\037\274\352<\354\211\367=t\017\242\274\001\250\222\275Ae\230\275\031\363\r<\265\246l\275C\266j<I\014\222=\257\235\010\275\354\367\014=+\350\213\275\003\035`=\254\030\304\275\350\207\240=1\206\237<\377n \275\320\n\205\273\362\315\212<\005\323\370<b|\222=\376/\265\275\201*\033;t\221\235;C\233\264=\243\344\230\27488Z\273X\215\021\275\266\271\271;\"\024\361=\360\226[=\215\"\346=Cvl=\314\332,\275)\311D\274\354\337\035\275j\000\222\273\332\364\266=\354\257\267=JHL=z\231\213=\372 \315\275\r\263\254<k\271\030=5G\271=\237\005\370=\374\017\225\274\003\307\203\275(\240 \275[\277\223\275\227\n\312;F\367\002\275\344\320\234<\036)@\276\276\277p\274\335\340X=W\357\356<\237\376\374\275\016A\006<\277\253x\274\203\345L=\252w\302\275FQ\307\273<_\337\275\300\3745<\212l\020\276(\246;\273U\373\216<\267k\324=[\220\364\275\023\007n<\2004t\266\320\327g\273\276\323\224\274\355\367-\275\312\330h\275\026n\201;\030G\207:\014Vl\275\3506\001\272\243\030*\275H\2452\275\335:\031\274f\334k=,\326\245=h|g=W\241I\274\371\350\367\274>\314\022\275\344\375\302\275<\302\303\275`\243\310\274\226\316\225\274\272\360\264=w\324\014<\210\302\301=:\233\374<\206k\344\275,\312C=\360\000T=2\332\000=\024:\376\274\253\337\006\276.\357\212\274Z\200\231=<\035\351;7\212\256:\220\216\240<\\\311\022=d\350\227=i\255>\275\260\305`=\207\255\013=#\004\010\276\374\363\312\2744\035\272\274\260Me\275\275y\203\275\2005\254\275\323Q\243=[\361%\275\016\245\324\2745\023\302\274G\340\206=\355\364\244=\252>\030=u\354C\276\220p\367\275\036\257\253<Q9<\275\3021\337\2744\360\000\274\323;\330=%\030\031=\213$\212\275\317\247\321=\276\n\363\275\377.\341\275?\226=<\233\026\217\275n{\226:\n\204S\274Q\367\2729^\307&\271\311,5\276\373[\211<\204(\014\274\252(\217\275G\267\351\273\316O\242=wF\254\275t\241\324\275\222\034\270<.\304U\275\347\001\000=@\3633<\371u\235=\216!\204\275/\244\212\275+\231\202\275A\017L\275z\303\366\273\266\033\304<\343fX=\336@\217<3\345$\275\000\312\211=6\236\254\275\365(g<*d\003\275\272\026\213\275\324\006\022\276\260\3039\275\016EX\2742E\023\274\230\363\212=\204\356\334\275\225\236\021<X1\217\274\210\340\375=F\347\250\274\343\210\014\275\200\255\255<\320\\\210=\242*]\275\331iO\27558H\275\231\260\274\274\214\036\202\275\202\206h=Z\305\247=;Q\254=?=\335\275\325\225\005\275\227p2=\302\3059=C\034\203\275\0009\244<\014\263\211\275\035\010\276=\242\325\310\274s\013\375\273M\005\330\273\244=\215\273\2632h=jo\343\273\372\234m=\375\023\301\2750\207\262=`\266\233\274\034\273G:Q@\204\2740\334\261<F\272*\275nc\025\274\271NQ=_\317\017<\261\246\014>\177\226\177<\323\231;\275\354\306%:\025d\337\274\251\0162<\251\221\027>\300\261\335\275jn\306<\303\nd=\2775$\2755\212\221\274$\230\373<\247[\205<\370lh\275F\257Y\274\315\202\210=^\372\355\274\017lT</r\360:\274-\271\273\203RI:Xq\024;uLo=\236\003\322=\300\243\007\275\236U\244\275\276T\002=\207\215v\274\273i\352\275\274\013\033\273\355+P\274(\036\302;\347\241A\274rrv=W\000\270;ahL<\2571\315=i\335\004\276\221\007\312\274X,P=/\376b<\246\002\014\275\326\315\334=\363\366B=\227\260\016=\341MM\275\n\314\230=\301\273\253=\206\246\333:V\230\245\275J\2275=w\rj\275){\323\275\034\276\302\274\364\020^=ve\212;\010\"T=\332\3616\275v\355$\275a\216\264<\205\341\326\274\330B\233\275\256\245\221=\344w\027=<\020u\275=\335\264\274\032\245\210<\211i\346\274E5\226=\320Ht=\307\237\257\274\001\317\337<m\2622=G\237\026=\204\317X=\346\013\201\275\224{-\276\t\325\242=x\223d\274QHV\274d\354\022=YX\335\274\272\315\242\273\256\2465<?\301\253\274\306Q\204\275\"Y\334<\365\000H\273[\307H<]\027\353\273A\306`\275\205\226E=\001\307\236< F==\355\014\246\275\214\304Q=\010\304\352\274\352\234\271\275\356\265\210=)\237\251<\356\032$\276\250L\235\275<\375\023\275\373\r\262<\362\265\335\272\000;\003\275p\006\272=zA\301\275E\263\225=y=\200=\332\'\323\272gBe<m{N<\234\263\3528X\035\240<\315\357\000=\353 \254\274\365\031\241=8\0301=\305\035\001<\221\322\245<\036H \275S\231\214<\267N\342=j\026\207;\254_\350;\300\345\363\275\334\206\264\275\326\245-<\345g\200=\264\3623\274\325\342\022=\300\224\333<\346Q\274=S\223\274\274\322\202\324<\316&\216\272\231\264V\273\314\357\273=\344\267\020\275C\340\231=j\037\230=< $\276\314\332\355=%\013d\274\212\025\315\275\355\245\370=\312f/:\353:\n=\317p\247\275\232\t\221=\270\001$\275\326f\256\272[##\274U!\016=H\344\235\275+\216\253=\351\345\343\275y\320\231<\324\366)<\255#\007<\344\206\013=\335t\003>\227\307\023\275\307|,>\273\266\321\275#\236d=\002f_=C\'\026<\213<\"\275\002\350\210=Nj\377\274&\201J=\225\0251=\351\027l\275\2400\230\275\273\027\304\273\221B\013\275\240K<\274\r=\360<\232\254\003>\031\331\307\275\002\375x\273\236\316\373\274h_\352<\266>\234<\t.\324;Q\277\223=\270d\364=\210E\301=\013<\021\275\035\314\320=[\333!<"
      }
    }
  }
}
node {
  name: "conv2d/kernel/read"
  op: "Identity"
  input: "conv2d/kernel"
  attr {
    key: "T"
    value {
      type: DT_FLOAT
    }
  }
  attr {
    key: "_class"
    value {
      list {
        s: "loc:@conv2d/kernel"
      }
    }
  }
}
node {
  name: "conv2d/bias"
  op: "Const"
  attr {
    key: "dtype"
    value {
      type: DT_FLOAT
    }
  }
  attr {
    key: "value"
    value {
      tensor {
        dtype: DT_FLOAT
        tensor_shape {
          dim {
            size: 8
          }
        }
        tensor_content: "\227\340~=\371\362\215\276\234\225\244;^p\327;\037\323\245=4\031\t>\211\035$=\312\017A<"
      }
    }
  }
}
node {
  name: "conv2d/bias/read"
  op: "Identity"
  input: "conv2d/bias"
  attr {
    key: "T"
    value {
      type: DT_FLOAT
    }
  }
  attr {
    key: "_class"
    value {
      list {
        s: "loc:@conv2d/bias"
      }
    }
  }
}
node {
  name: "conv2d/Conv2D"
  op: "Conv2D"
  input: "img"
  input: "conv2d/kernel/read"
  attr {
    key: "T"
    value {
      type: DT_FLOAT
    }
  }
  attr {
    key: "data_format"
    value {
      s: "NHWC"
    }
  }
  attr {
    key: "dilations"
    value {
      list {
        i: 1
        i: 1
        i: 1
        i: 1
      }
    }
  }
  attr {
    key: "padding"
    value {
      s: "SAME"
    }
  }
  attr {
    key: "strides"
    value {
      list {
        i: 1
        i: 1
        i: 1
        i: 1
      }
    }
  }
  attr {
    key: "use_cudnn_on_gpu"
    value {
      b: true
    }
  }
}
node {
  name: "conv2d/BiasAdd"
  op: "BiasAdd"
  input: "conv2d/Conv2D"
  input: "conv2d/bias/read"
  attr {
    key: "T"
    value {
      type: DT_FLOAT
    }
  }
  attr {
    key: "data_format"
    value {
      s: "NHWC"
    }
  }
}
node {
  name: "conv2d/LeakyRelu/alpha"
  op: "Const"
  attr {
    key: "dtype"
    value {
      type: DT_FLOAT
    }
  }
  attr {
    key: "value"
    value {
      tensor {
        dtype: DT_FLOAT
        tensor_shape {
        }
        float_val: 0.20000000298023224
      }
    }
  }
}
node {
  name: "conv2d/LeakyRelu/mul"
  op: "Mul"
  input: "conv2d/LeakyRelu/alpha"
  input: "conv2d/BiasAdd"
  attr {
    key: "T"
    value {
      type: DT_FLOAT
    }
  }
}
node {
  name: "conv2d/LeakyRelu/Maximum"
  op: "Maximum"
  input: "conv2d/LeakyRelu/mul"
  input: "conv2d/BiasAdd"
  attr {
    key: "T"
    value {
      type: DT_FLOAT
    }
  }
}
node {
  name: "batch_normalization/gamma"
  op: "Const"
  attr {
    key: "dtype"
    value {
      type: DT_FLOAT
    }
  }
  attr {
    key: "value"
    value {
      tensor {
        dtype: DT_FLOAT
        tensor_shape {
          dim {
            size: 8
          }
        }
        tensor_content: "\032@d?C\237G?\007b\212?\214\267\200?\316\221\202?;\372P?\212\204\201?\264\353\216?"
      }
    }
  }
}
node {
  name: "batch_normalization/gamma/read"
  op: "Identity"
  input: "batch_normalization/gamma"
  attr {
    key: "T"
    value {
      type: DT_FLOAT
    }
  }
  attr {
    key: "_class"
    value {
      list {
        s: "loc:@batch_normalization/gamma"
      }
    }
  }
}
node {
  name: "batch_normalization/beta"
  op: "Const"
  attr {
    key: "dtype"
    value {
      type: DT_FLOAT
    }
  }
  attr {
    key: "value"
    value {
      tensor {
        dtype: DT_FLOAT
        tensor_shape {
          dim {
            size: 8
          }
        }
        tensor_content: "n|\343\274[\235\240\273_\357\014\276\212\327\357=\353\0169\275@\321\214\275\\\360x\276\005U\202;"
      }
    }
  }
}
node {
  name: "batch_normalization/beta/read"
  op: "Identity"
  input: "batch_normalization/beta"
  attr {
    key: "T"
    value {
      type: DT_FLOAT
    }
  }
  attr {
    key: "_class"
    value {
      list {
        s: "loc:@batch_normalization/beta"
      }
    }
  }
}
node {
  name: "batch_normalization/moving_mean"
  op: "Const"
  attr {
    key: "dtype"
    value {
      type: DT_FLOAT
    }
  }
  attr {
    key: "value"
    value {
      tensor {
        dtype: DT_FLOAT
        tensor_shape {
          dim {
            size: 8
          }
        }
        tensor_content: "\317\016e>*Wa\276\204:\246<\350\352\346=\336M\313=\rY\261=\tL+>\257]\014="
      }
    }
  }
}
node {
  name: "batch_normalization/moving_mean/read"
  op: "Identity"
  input: "batch_normalization/moving_mean"
  attr {
    key: "T"
    value {
      type: DT_FLOAT
    }
  }
  attr {
    key: "_class"
    value {
      list {
        s: "loc:@batch_normalization/moving_mean"
      }
    }
  }
}
node {
  name: "batch_normalization/moving_variance"
  op: "Const"
  attr {
    key: "dtype"
    value {
      type: DT_FLOAT
    }
  }
  attr {
    key: "value"
    value {
      tensor {
        dtype: DT_FLOAT
        tensor_shape {
          dim {
            size: 8
          }
        }
        tensor_content: "\014P\300=\030ji<\325<G<T\034\245=\"*\210<nUY=\r\223Y=?9\234<"
      }
    }
  }
}
node {
  name: "batch_normalization/moving_variance/read"
  op: "Identity"
  input: "batch_normalization/moving_variance"
  attr {
    key: "T"
    value {
      type: DT_FLOAT
    }
  }
  attr {
    key: "_class"
    value {
      list {
        s: "loc:@batch_normalization/moving_variance"
      }
    }
  }
}
node {
  name: "batch_normalization/cond/Switch"
  op: "Switch"
  input: "training"
  input: "training"
  attr {
    key: "T"
    value {
      type: DT_BOOL
    }
  }
}
node {
  name: "batch_normalization/cond/switch_t"
  op: "Identity"
  input: "batch_normalization/cond/Switch:1"
  attr {
    key: "T"
    value {
      type: DT_BOOL
    }
  }
}
node {
  name: "batch_normalization/cond/pred_id"
  op: "Identity"
  input: "training"
  attr {
    key: "T"
    value {
      type: DT_BOOL
    }
  }
}
node {
  name: "batch_normalization/cond/Const"
  op: "Const"
  input: "^batch_normalization/cond/switch_t"
  attr {
    key: "dtype"
    value {
      type: DT_FLOAT
    }
  }
  attr {
    key: "value"
    value {
      tensor {
        dtype: DT_FLOAT
        tensor_shape {
          dim {
          }
        }
      }
    }
  }
}
node {
  name: "batch_normalization/cond/Const_1"
  op: "Const"
  input: "^batch_normalization/cond/switch_t"
  attr {
    key: "dtype"
    value {
      type: DT_FLOAT
    }
  }
  attr {
    key: "value"
    value {
      tensor {
        dtype: DT_FLOAT
        tensor_shape {
          dim {
          }
        }
      }
    }
  }
}
node {
  name: "batch_normalization/cond/FusedBatchNorm/Switch"
  op: "Switch"
  input: "conv2d/LeakyRelu/Maximum"
  input: "batch_normalization/cond/pred_id"
  attr {
    key: "T"
    value {
      type: DT_FLOAT
    }
  }
  attr {
    key: "_class"
    value {
      list {
        s: "loc:@conv2d/LeakyRelu/Maximum"
      }
    }
  }
}
node {
  name: "batch_normalization/cond/FusedBatchNorm/Switch_1"
  op: "Switch"
  input: "batch_normalization/gamma/read"
  input: "batch_normalization/cond/pred_id"
  attr {
    key: "T"
    value {
      type: DT_FLOAT
    }
  }
  attr {
    key: "_class"
    value {
      list {
        s: "loc:@batch_normalization/gamma"
      }
    }
  }
}
node {
  name: "batch_normalization/cond/FusedBatchNorm/Switch_2"
  op: "Switch"
  input: "batch_normalization/beta/read"
  input: "batch_normalization/cond/pred_id"
  attr {
    key: "T"
    value {
      type: DT_FLOAT
    }
  }
  attr {
    key: "_class"
    value {
      list {
        s: "loc:@batch_normalization/beta"
      }
    }
  }
}
node {
  name: "batch_normalization/cond/FusedBatchNorm"
  op: "FusedBatchNorm"
  input: "batch_normalization/cond/FusedBatchNorm/Switch:1"
  input: "batch_normalization/cond/FusedBatchNorm/Switch_1:1"
  input: "batch_normalization/cond/FusedBatchNorm/Switch_2:1"
  input: "batch_normalization/cond/Const"
  input: "batch_normalization/cond/Const_1"
  attr {
    key: "T"
    value {
      type: DT_FLOAT
    }
  }
  attr {
    key: "data_format"
    value {
      s: "NHWC"
    }
  }
  attr {
    key: "epsilon"
    value {
      f: 0.0010000000474974513
    }
  }
  attr {
    key: "is_training"
    value {
      b: true
    }
  }
}
node {
  name: "batch_normalization/cond/FusedBatchNorm_1/Switch"
  op: "Switch"
  input: "conv2d/LeakyRelu/Maximum"
  input: "batch_normalization/cond/pred_id"
  attr {
    key: "T"
    value {
      type: DT_FLOAT
    }
  }
  attr {
    key: "_class"
    value {
      list {
        s: "loc:@conv2d/LeakyRelu/Maximum"
      }
    }
  }
}
node {
  name: "batch_normalization/cond/FusedBatchNorm_1/Switch_1"
  op: "Switch"
  input: "batch_normalization/gamma/read"
  input: "batch_normalization/cond/pred_id"
  attr {
    key: "T"
    value {
      type: DT_FLOAT
    }
  }
  attr {
    key: "_class"
    value {
      list {
        s: "loc:@batch_normalization/gamma"
      }
    }
  }
}
node {
  name: "batch_normalization/cond/FusedBatchNorm_1/Switch_2"
  op: "Switch"
  input: "batch_normalization/beta/read"
  input: "batch_normalization/cond/pred_id"
  attr {
    key: "T"
    value {
      type: DT_FLOAT
    }
  }
  attr {
    key: "_class"
    value {
      list {
        s: "loc:@batch_normalization/beta"
      }
    }
  }
}
node {
  name: "batch_normalization/cond/FusedBatchNorm_1/Switch_3"
  op: "Switch"
  input: "batch_normalization/moving_mean/read"
  input: "batch_normalization/cond/pred_id"
  attr {
    key: "T"
    value {
      type: DT_FLOAT
    }
  }
  attr {
    key: "_class"
    value {
      list {
        s: "loc:@batch_normalization/moving_mean"
      }
    }
  }
}
node {
  name: "batch_normalization/cond/FusedBatchNorm_1/Switch_4"
  op: "Switch"
  input: "batch_normalization/moving_variance/read"
  input: "batch_normalization/cond/pred_id"
  attr {
    key: "T"
    value {
      type: DT_FLOAT
    }
  }
  attr {
    key: "_class"
    value {
      list {
        s: "loc:@batch_normalization/moving_variance"
      }
    }
  }
}
node {
  name: "batch_normalization/cond/FusedBatchNorm_1"
  op: "FusedBatchNorm"
  input: "batch_normalization/cond/FusedBatchNorm_1/Switch"
  input: "batch_normalization/cond/FusedBatchNorm_1/Switch_1"
  input: "batch_normalization/cond/FusedBatchNorm_1/Switch_2"
  input: "batch_normalization/cond/FusedBatchNorm_1/Switch_3"
  input: "batch_normalization/cond/FusedBatchNorm_1/Switch_4"
  attr {
    key: "T"
    value {
      type: DT_FLOAT
    }
  }
  attr {
    key: "data_format"
    value {
      s: "NHWC"
    }
  }
  attr {
    key: "epsilon"
    value {
      f: 0.0010000000474974513
    }
  }
  attr {
    key: "is_training"
    value {
      b: false
    }
  }
}
node {
  name: "batch_normalization/cond/Merge"
  op: "Merge"
  input: "batch_normalization/cond/FusedBatchNorm_1"
  input: "batch_normalization/cond/FusedBatchNorm"
  attr {
    key: "N"
    value {
      i: 2
    }
  }
  attr {
    key: "T"
    value {
      type: DT_FLOAT
    }
  }
}
node {
  name: "max_pooling2d/MaxPool"
  op: "MaxPool"
  input: "batch_normalization/cond/Merge"
  attr {
    key: "T"
    value {
      type: DT_FLOAT
    }
  }
  attr {
    key: "data_format"
    value {
      s: "NHWC"
    }
  }
  attr {
    key: "ksize"
    value {
      list {
        i: 1
        i: 2
        i: 2
        i: 1
      }
    }
  }
  attr {
    key: "padding"
    value {
      s: "VALID"
    }
  }
  attr {
    key: "strides"
    value {
      list {
        i: 1
        i: 2
        i: 2
        i: 1
      }
    }
  }
}
node {
  name: "dropout/cond/Switch"
  op: "Switch"
  input: "training"
  input: "training"
  attr {
    key: "T"
    value {
      type: DT_BOOL
    }
  }
}
node {
  name: "dropout/cond/switch_t"
  op: "Identity"
  input: "dropout/cond/Switch:1"
  attr {
    key: "T"
    value {
      type: DT_BOOL
    }
  }
}
node {
  name: "dropout/cond/pred_id"
  op: "Identity"
  input: "training"
  attr {
    key: "T"
    value {
      type: DT_BOOL
    }
  }
}
node {
  name: "dropout/cond/dropout/keep_prob"
  op: "Const"
  input: "^dropout/cond/switch_t"
  attr {
    key: "dtype"
    value {
      type: DT_FLOAT
    }
  }
  attr {
    key: "value"
    value {
      tensor {
        dtype: DT_FLOAT
        tensor_shape {
        }
        float_val: 0.6000000238418579
      }
    }
  }
}
node {
  name: "dropout/cond/dropout/Shape/Switch"
  op: "Switch"
  input: "max_pooling2d/MaxPool"
  input: "dropout/cond/pred_id"
  attr {
    key: "T"
    value {
      type: DT_FLOAT
    }
  }
  attr {
    key: "_class"
    value {
      list {
        s: "loc:@max_pooling2d/MaxPool"
      }
    }
  }
}
node {
  name: "dropout/cond/dropout/Shape"
  op: "Shape"
  input: "dropout/cond/dropout/Shape/Switch:1"
  attr {
    key: "T"
    value {
      type: DT_FLOAT
    }
  }
  attr {
    key: "out_type"
    value {
      type: DT_INT32
    }
  }
}
node {
  name: "dropout/cond/dropout/random_uniform/min"
  op: "Const"
  input: "^dropout/cond/switch_t"
  attr {
    key: "dtype"
    value {
      type: DT_FLOAT
    }
  }
  attr {
    key: "value"
    value {
      tensor {
        dtype: DT_FLOAT
        tensor_shape {
        }
        float_val: 0.0
      }
    }
  }
}
node {
  name: "dropout/cond/dropout/random_uniform/max"
  op: "Const"
  input: "^dropout/cond/switch_t"
  attr {
    key: "dtype"
    value {
      type: DT_FLOAT
    }
  }
  attr {
    key: "value"
    value {
      tensor {
        dtype: DT_FLOAT
        tensor_shape {
        }
        float_val: 1.0
      }
    }
  }
}
node {
  name: "dropout/cond/dropout/random_uniform/RandomUniform"
  op: "RandomUniform"
  input: "dropout/cond/dropout/Shape"
  attr {
    key: "T"
    value {
      type: DT_INT32
    }
  }
  attr {
    key: "dtype"
    value {
      type: DT_FLOAT
    }
  }
  attr {
    key: "seed"
    value {
      i: 0
    }
  }
  attr {
    key: "seed2"
    value {
      i: 0
    }
  }
}
node {
  name: "dropout/cond/dropout/random_uniform/sub"
  op: "Sub"
  input: "dropout/cond/dropout/random_uniform/max"
  input: "dropout/cond/dropout/random_uniform/min"
  attr {
    key: "T"
    value {
      type: DT_FLOAT
    }
  }
}
node {
  name: "dropout/cond/dropout/random_uniform/mul"
  op: "Mul"
  input: "dropout/cond/dropout/random_uniform/RandomUniform"
  input: "dropout/cond/dropout/random_uniform/sub"
  attr {
    key: "T"
    value {
      type: DT_FLOAT
    }
  }
}
node {
  name: "dropout/cond/dropout/random_uniform"
  op: "Add"
  input: "dropout/cond/dropout/random_uniform/mul"
  input: "dropout/cond/dropout/random_uniform/min"
  attr {
    key: "T"
    value {
      type: DT_FLOAT
    }
  }
}
node {
  name: "dropout/cond/dropout/add"
  op: "Add"
  input: "dropout/cond/dropout/keep_prob"
  input: "dropout/cond/dropout/random_uniform"
  attr {
    key: "T"
    value {
      type: DT_FLOAT
    }
  }
}
node {
  name: "dropout/cond/dropout/Floor"
  op: "Floor"
  input: "dropout/cond/dropout/add"
  attr {
    key: "T"
    value {
      type: DT_FLOAT
    }
  }
}
node {
  name: "dropout/cond/dropout/div"
  op: "RealDiv"
  input: "dropout/cond/dropout/Shape/Switch:1"
  input: "dropout/cond/dropout/keep_prob"
  attr {
    key: "T"
    value {
      type: DT_FLOAT
    }
  }
}
node {
  name: "dropout/cond/dropout/mul"
  op: "Mul"
  input: "dropout/cond/dropout/div"
  input: "dropout/cond/dropout/Floor"
  attr {
    key: "T"
    value {
      type: DT_FLOAT
    }
  }
}
node {
  name: "dropout/cond/Identity/Switch"
  op: "Switch"
  input: "max_pooling2d/MaxPool"
  input: "dropout/cond/pred_id"
  attr {
    key: "T"
    value {
      type: DT_FLOAT
    }
  }
  attr {
    key: "_class"
    value {
      list {
        s: "loc:@max_pooling2d/MaxPool"
      }
    }
  }
}
node {
  name: "dropout/cond/Identity"
  op: "Identity"
  input: "dropout/cond/Identity/Switch"
  attr {
    key: "T"
    value {
      type: DT_FLOAT
    }
  }
}
node {
  name: "dropout/cond/Merge"
  op: "Merge"
  input: "dropout/cond/Identity"
  input: "dropout/cond/dropout/mul"
  attr {
    key: "N"
    value {
      i: 2
    }
  }
  attr {
    key: "T"
    value {
      type: DT_FLOAT
    }
  }
}
node {
  name: "conv2d_1/kernel"
  op: "Const"
  attr {
    key: "dtype"
    value {
      type: DT_FLOAT
    }
  }
  attr {
    key: "value"
    value {
      tensor {
        dtype: DT_FLOAT
        tensor_shape {
          dim {
            size: 9
          }
          dim {
            size: 9
          }
          dim {
            size: 8
          }
          dim {
            size: 16
          }
        }
        tensor_content: "D\"A\275[\245Y=\304\211\006\275Z\315\333<\013\005\030=\310,\326=z\355\240;\220g\225=]xm=\276_\010=\262\213\033=\273JJ=:T\302;5>h\273M\353\222=\322\237M\275\315{\016\274\\\315\022\276\3756\303=\024`\316<&S\357\275\231n\250<\321\231:=\312\325\351<k(\355\275\332\026\310<\202\241\037\275\242\277\253=\0001\231:\260D\235\273\016\371#=f\307\014<\354\217\250=6OU\275\\\245\300=\267\326[\275K\224h;\220\263G<\202\034\023<5\251o\273\032\311\213<\277\333|<\241\005=<\253\362\037<\230\\\340\275\262(k<Z\004\254\274\005\320F<9{e\275\206\316\340=\350\021\234\275\273\272\335\273VS\005\275=C\223\274\345\255\314\274\250;\205\275\311\004\002=\342R\355\274\364`,\274\235\322A\275\307\264\200=\267\030\211\274\t\231\003\275)\374\250<2R\336=\232r\272\272\226\241V=\232\247@\275\345\237\237\274\367\353\n\275\005h\033=r~\325;;Q\336<\255k\237\275\036\230}\274\275WA=\3422e;\177\257\"=Dr\214=U\312~<\313+\326<;\016\204=\267J\026<\263\235\010\276\331\353\016=4\027D9\321=\034=:\232\340\274\236\262t=\253Zz=JM\214=\036R\331<\253\312\030\274\275\257\361\275\001&\010\275w\020\251\275\336\033\230\275\240\014F\274b4\000=\017\254a=\017\330;<acX=\210\205\233\275\320O\020=\205\244\022\273\256=\214<\225\340\336=t\254I<:\301\226=\233\371\032\275\360\004\233=\366X\212<T\3351\275c\237\321\275\234rE=+\230\311;\362x\261\275\365[\325<] \006\275\347\261\354\275\206\241A;\371\205\003\275\334\345\264<\350\003\315</\326o=\016\343z<.\314_<\025\332\223<\322\265\370\274\312\346s<\250\207\206\274\002dz\273\255K\203\273\001\242\300=\027\254]\275y\230\262=\254\177\322<\016\366\025<\\w;=\336\0026\274.\325\236<\024\336\262<6\262\207<id\335\274P\004\026<\212;A\276\252\272\232=$~\221:\365\242\022\276,\036\256;},]=\345S\'\275k\356\001\275k\251\323\274\225E\276\274\250\241\361=\0207\231\274\234\357]\274\"\224\020;\350\204\212<C\334\357=\350\333\336\275\362\264\237=\277\005\254\275\352<\030\275\220\302$=\251\217\347\2730\332i\273R\223\327\274\221\252\317<\026\271\215\274\036\340\214=<j\230\274^_\370<\223\343#:\233?\274;\364\2678\275\230\352\210=:\223\312\275\020\006\223\274^.h\274\203\341=\275\321H\377\274\304\020\322\275\226\215-=\371\213\004\275\336\257\001\275\304\227|\275s_\251<\250\346\'\271@\242\302\2752\254\254<u!\357:\271\322)\2756\033\240<D\231\350:\02738\275P\252\217=j\313\027=\306\203\200\275\311\021\010=&Y\263\2759\354\224\275\r\251E=\220$\211\274<\215\336<\300#\240=hP\005<\216\341\204=\331h\036=\027\355\223\275B\361Y\275\242\224\031\275\262)\344=\216\355\026=\006\326\206\2751\025\264=J|\205=\362}\237=\240\262\254\272#XJ\275\207\223\327\275\371c\276\275\263\344Q\275\355C]\2752\255 =V\327\r=\341\020\302<*V\202=. Q=\337\305\033\275\202\364\200\274\010\355\023\275C\201\255=f\333\014>\331\230\r=%2\362</9\302\275\274\3502=T\253\270;\013\354\223\275\226\302t\2759l?=\212\332\'\274\230y\242\275\235\257\r=\010\341?\275kH\354\275\337#\251\274\246\336-\2759\312\031=\371E\263<X\352\'=}\320 <\242\343\002;f=\277\272\255\322c=\343\036W=\2405\367;\347\375\370<F7=<\375\006\204=\356 \226=\246C\267=\356\204\320\271\010\274~<\300\372\325=\255\270\334=\316\001\244:\277v\310\274\301?\264=\376\311H\275A\007\245\274%@\355\274\316\313\206=\303\265\253\273\302\200\003\276\322\027\370<1mK\274\255kG\274\241O\036\275\305A\274<\216\260<\27554o=\273\340{;i\242\337\274j\242w;\371\357\251\272\341\271\037>GS7\275W0\262=G\"\313\273\035\235\241<\\\226\263=\337>S< \034\366<\340@4=\371\356\251<W\027\023\275\003\337\034\274\2141\346\275\006\207r\274\372A<\275X{\370;\202\351s\274jFz<\320C\224\275\224J:\275\030\000\252;0\'%\275v80<\357+\177\275\3705\326\273H.\270\274\230\013\217<\340J\353\274,\3162\275\372[9\273\205\227L\275g\222I\273\315f\277\275`\364\216\275[\346X\275\227\247\n\275.Z\321\275\234\276\006\275P+n\2759\205T\275\206\034\310:t\n\324\275\246\234\244<A\202\017\275<\305X\275\230\302,<\316\3164=\261\312\363<\364\302\245=\200\025\033=Z\246\003;$\255\203\275\307\331\242\275\3336X=<~L=\276\314\307\275m\323\017=\024\336y=p\331\005=\"\320\344;\235\360\014=}\317\304\275\323\026\277\275q\333\203\275[-\311\274\037\321\236<\236\257\257<\300\261\306<|\3154=V\245u=,\250\210=6Y\202\273\201\317\252;B5\203=\366\347m=\350\025N=\364\270\014=#\211\375\2746uW=\260D(;\210\353\210\275\364\324\345\274\231\\\202=\241x\320\274\216\275\003\276\251\325\272;\273\234\246\274\302\007\"\276\0214\177;\323\214`\274.A\254<\330\202\365<\220\363\256;\252&\263\274\347\031\022\275Iq\005\275U\354+\274Y\376\235<\345\247\276<\334w\335<\214\3177=\236\307K;\260\345\262=?-\321=\346\237\275;\r\337Y\275\371\334\305=\002\255\352=\215\335G=\326N\033\275A\005\212=MM\322\274\226\275\370\274\311nq\275{HI=\355bh\275P\0316\276R\262\027=\031\362[\275\362p\346\274{\306f=D+\203\274\030#\365\274\202\000\213\274\025]\005<M\034S\275\376\366\245<\345PP\274k4+\275\266\003\276\2751\335\265\275\203\026\317<\363\227f\275\210.F=zC\217\274\243\336\327\274\000\215\221=\361\004.=XIg<Y\2438=\242S\227\275\374\335\323\274\366\314\200<\212A\024<s\213\027=\337,@\275\3546\363;\006\020\240\274\226iu\274\020\273f\275H\"s;\251\354{<Q\357\350\273\300/\306\274\276\216_=\320\304N\275bX\016\275\3234\344\274hB%\275\357\005\332\274z\020t\275\311\243\'\275\215\345u\275\2579\035\275\262@H\275|\374t\2735\226\372\273\265\000\312\275\177\275\t=Z\311\304\275\3166\216=[\033j\273\2603\371\274\250\024\305\275\340(^=5\321\202=\377d\324=\270j\213=OU\345<Q\375e=_c\372\275\215\232\247=\013-\255;\352g\350<{?\351;\315`l=\017Q\353;\363\311\031\2757TP=\262\357\344\275Z&\326\275\342\261\240\274\3565;<\307c\007=\257\366\206<\271w\265=\266E\273<\351GL=>\374\364\274[\203\255<\006\316\233=\304\270\237=+\373\246\275\002\233\226=R=T\2742\203\233\274\305\351\037=\232\313\370\274\215\021G\275\224\315P\274]\376\032=\262m\321\274\322\357\354\274\366\352,\272n]c\273\217\013\027\276\032\210H<C7\r=J\027\232\270S\350?<\357\003\352;kK\276\275\364\273\324\274\245\304F;\204\260\214\274\021\221U\274\231H\212=\005\342\002=\363\033\301<\317d5<,\026?=;\345n=\2507y=|\322s\274\267\233?=\353u%=\003a\266<\325\212\327<}\370$\275v\327\306;\365\362g\275\247\241\311\273@J4<\365\274\233<\237\264\360\275\r8\027=\007^\224\275\370*H\275)m}=\343pE=\031\016\206\274\260t\363\273A\344\027\274\202\002\207\2754\321\343<y\030\324<\232O\371=\213l\'\276\024DI\275\340Kj=\2461\205\275n/.=\363\360\232\273\364=\322\274\235\347\330=\352\377\r\275\204e\017=X4\310\274\347\201h\275\245\2266\276})V=k\230\312<}\010q=\227\201\227\275=\315\\=\364\357\t=\311\031\000=\271qf\274\207\270\373<\335RF=\033f\032=\276EV\275\231\026T<\305=O\274\320\372T\275\225\275\357<Bj(\274\235p\003\274\240oR\274F\346p\274\216.\013\275m\327\325;7Y\300\275I*S\275\323Vw\274\226\230s=\3166\326<\006\267\241\275\342p\363=Q\365\'\274dp\264\274\001\370Z\275\365Z\317<\354dQ=\212!\006\275\031[\211=\201\374T=\370\362\330=6\212g\275\322\265\313=h=\260\2752:*=-\223\021=\032\255\222\275\250)~=\210$\003\275\272C\264=\305g\351\274\'\307\002\275o\275G\275\005@\030:ekl\272\204\003\013\273\330\216\255\272K\332\000=>\242\324\273\030\276o;\025\225\000=\006\215q<\323\205\360<y\317\375\275H\275k=N0\327\274!\256M<\212\306\024=D\213;\274`\344\244\274\205\266\340\273\014h\376<s\005\024\274Z\332(\275,\016\265\273\037H3:\353\357\021\276_\010\254<@\317b<=\321\307\27412d;\225\333\203\274\276\277\024\276+\246><\323\002\232<2\357\037\274\352\227\366\274\220\006G=\3269\025\271K\247-=n\337x:\177XH<\343\312y;\265\322\272\273\233v\000\275\013=%\274\203\255\300<\'d\236<aO <\352\314\242\2733\301\376<\267\'{\275\2575I=\231|\245\272\211\037\013\274\320\361>\276\346$`=z\300o\275\024\220\223\274l\226\214</yT=\210@\324<B\240\177\275\022\314\003\275&!\337\275L\333\352<\240\r\372;\002T\360\275\360\362\t\276@fg\275\253\237j=\030\014\330\275\334\261S<\302\205\037=\023\235y\275\233\365p=t\"\257\275\243\230\225=H\352]\275\026\202\256=\251\256x\276\275\374#<\"K3\275\347\024\202=\234+\232\275\266\337^=\317f\332=^\211N=\340}\"\275\210\374\360;\2319\214=\222\301\213<\326h?\275I,\000=b_<\275X\310\304\274WJ\021\274\223e\254\274W\2706\274\232\314\250\274\017\206\374;\004\035U<e\376B=#j7\275l\002 \275!\330\365;\004\t\256\274\251!\311=\"\205\037\276\321K\241=\243\375\034\275x\377>=\300\204\225\275\241\036\333<,w:<\032\250\374\274\233\313\205=\220H\263<\333H\247=\355E[\274\254\267;=O\023\206\275\355dZ=\004\252\t=5\036\256\275\036\020P=\252q\363\274\254\335\017>\030\306f\275\305\005~\275\247JI=y\013\225\2741!\222=x\327)\275j\233\256=%\243\310;\262\214>:\025b\231\274\276\240\000<B\370\330=V^\252<Ui&\276\225\336\371<\322\315\004\2755\3447=\036v\251=\350\023\020<\334\003\272\274\032\241\"<B\316-=Kp\031=:\230\251=\304\226\255< @\270<\211[\016\276\307O\315<a\027\243=5@A\275\017\236?<\034\210{\275E\220\016\276jV\204<\204\234\223<\302u\006=\302\340~=\016`\371<\010\207\033\275\343\021\345;\306N<<\\p\013\275>\215\211\275\363J\203\274]n\310\275\333~\237\274c\341\234<\302\326_=cR\222=\256\247\203=\362[\337=\266s\323\274:P{\273\255\310\264<\224\305\367=\0033\021\276s\362\200=\326\3148\275x5\205<2th=e\274\233=9u\232<\303\210\002\275xX\300\274\372J\275\275\317\327\031\275\272\372\'\275\235\031}\275\037\274\315\275\243\314\252\273\t\224\247=\003\305\311\275\256?k=\275\010\210<\314Z\022=8B\237=\222w\230\275?Z\026=zI\353\273Zh\356<\024L.\276ua\344\272%\373\362\274\334\341W=9\244\213\275)a\231=\344\366u=9*\213<\261n\252\274\032\204\034=\355\370\260\274q?{\273\240_7\275\304\343\371\273<\216\240\274\222\177\221\274\277zi\274\256\362f=\235\242\033\275%pt\275\n\351b;/[\230=\177\025\274<\232P\270\275;\230[\275\247\373\033=~\200\216<\364c\030=w\334\207\275\rA\243\275\0309\302\275\301\375\212=gR\004=9\232\245:Jh\260;\321[\364\274\210\355\370<w\'/;I\0314=\'*S\274\024M3=Es\251\275p\265\273\274_\263\303\274$~\241\275\366dg\274\225[\343\274\252\277\234=:\353 \275l\nJ=\270\366<<\346-\230\274\242\360\252=\3172g\2757\'\202\272\022\336\016=H\364\362;\357Z8\275J\033\231;\016?\323<\236\320\370<\230`\263\275Cd\214<\373\310V\274\203\256\020=sC\005=D\307\206=g\010{<\361\345\252<s\"}<4i\240<\202g\235<\337\223/=:n\256\273\025\312\335\2759\014\006\273\343kW=\335\300\211\274\352H\027<Y)\243\275\335\214\370\275R\306J=2v\351<P\365\317<\356\234\200=\2258\232\274\226\203\017\275\350\265\243=\323\021\r<:\265*=\361\331+\275\'\267\252<\027\r\235\275\0177)\275\244\242\004=\234\277\"\275BB\216==\003\210=\343\264Z=\202E\244;\003\261,\274\235\354!=\315Z\020>\235\301\020\276jjb<c\006\242\275\257\247\320\273\023\323\237<\327n\230=\021\370\230=\205\202\215\275\274\315\2469\203}X\275(\3568\274\320xN\275\326\215\325\274\2154\253\275\204\323\261<\344\0256=\244\027k\275\325\275Z=\341\032\351\274#y\366\274k\240\367<\265\344\314\275\310\345\333\2746\200\022<\177R/>\313\306C\275\340\340C=\322s\236<\352J\\=Wr\002\275\255\343\374<\265\0345=\376\3648=\235\222\261\274\014\010\377\273\350\234_\275w\321\212<\026\212\317\274\351%8\275v\376\370;\000\335\256\274\312\223\224\275\247\230\214=\203?\202\274\264R\207\275\342n2\275\300\005M\275P\363\020=\317D\210\275\220\346);\236\322V\275\200+\t=}\243V\274\253\376\225\275az?\275U\274m\275\310(\366<J\251a=\232\023\311;\327Ds\274\"c\224\274-\000\202=I;\002=\336\016\026=\222\037\013\274\340\242\201<\353\275\326\274>\217\221<\206\277\224\275\246\246X\275g/\304\275f\360v=b\027\253;\224\270\177\275_\210\256=]\035|=\327\310\\\274[o\317=XQ\030\275\010\330^\270\177\t`=`\216\255;\272:\337\274\306F\200<\034\313/=6\263\016<\303\313\260\274\376;@=\330\214\227\275\340:Z\274\336\324\026>\334\213\350=\036_\223<%_\022=\031W\212<MC\226=\014\202\342\272=\364\025=\345#H<\240o\250\275\275\031h:\262.V<\024\254\375;\343u\006<\325\241\236\275\223:5\275\334\016A<\261S\347\273\231{p<\2253\342<\313\350\211\273\370\326y\275\274\334I=Si\354<\347\212v=fA\303;3A==\275t\313\274v*\027\275G\343\000\275\006V\223\275\310\266\250=Y\226E=\377V\r=\323\014\016\274\240h\'=\240.\021<{\'\265=\017\312.\276~\245\303<\006YC\2751V7=\324Q\212\274\202\367\313<\026{\241=\246)p\275\203\276\201<\307\223\254\274\324\004\223=\220,\257\275\272\333\205\274=\341B<\351{G=i\021H\275\211\266\235\275bo\001=\304\010\242=\304\253\001\274s\373#\274Z6)\275`\217\333\274\222\027!\274O\360\232=\343\340E\275\"\177)=\003\332K\273\276q\221=\222c\206\275\021\366\200;\223h\207=\334\377b\274\367\202\234<\3665\027\275\206_\234\275\200\363\013\275\262\220\317<\036\251\210\275\025F\203=\246\025\212\274\017\335K\275\262\274\302:8:\'<\'\323h\275\320\007\001<\352\216\234\273%\2712=\n$#\275]Df\275\265\005=\275\2622\206=bR`\275m\305\212\274\217$\256\275\312\2409\275QP\241\273I\371\206=Cl\255\273\027\300\232\273c\272\213\275r\364\222=\236\333\035<\354\241\262\272\306\032\211\275\362\323\277\274\331\211`\273\002\240\346\274\3135\217\275\3766\240<\213b\244\275.I\t=V\310B\273\321\241b\275.#\366\274\316\033\235=\263QO\274\271J\261=\027NX<\r/x;r\350\356=\317\027#<\374\375\354\274\364j\032\273M\237\343=?\004\321<\377\270z\273\370\037\300=\352\277>\275_%\035\2745\361\n>\252\010\306=\221\355\355;\263I\247\274\032\363\270<\254\326\235<\341xb\275\343d\357<jL\215<\355\304\215\275\0139\200\275\330\372\324<\036\257\217<\333\207\250<\020\230\230\274U\352\317\274\231U\247<\370*\335\274\231\324\206\275`xX<KA-=\231J\342<I\005\005<\367X\234=\244\237\314<K\031e\274\305Ed=L\007\213;\346\005\306<\224\016>\273\220t\205=\014\350\014\275\306:R\274#\217\206<$\202\310<\333\341\366\275\316\316\224=\364\323^\274\375\n\274\275z\007\307\274\245r\212=a1\030\272\363\277\274\274\307\262\035=\322\310\226\275\2640\210=\304\362\240\274\221\356\201\274\000K\231\274g\236\304\274\201 \275<\350\354>=\321\320B<;\306M\275\266\247\3059\313\337\330<\361\227\214\274\214\"F\275\334\006\254\273\236\222\325\2728g\215:d\227\300<Z\023\301\275\372\212u<X8\317\274\004\032h\275\334A\276\275M0\305=\236\036\222\275\334\347\312\274l\365\004\275!Z\303\275\025\256\315\274\220\357\216\275I\357\322\274\236\262\222\275\272z\260\274\037!\201=iI\004=\214I\255<\225ba\275\216W[=\211?F>I7\003\275\330\2517\272\202\372\264\275o\023p\274\316\242\014;\264\335\210=\344\245;;Z\027\253<\370\302\352\273P\n{\274=\276\337;\0053`;7\337\023<\004o8=\"\215\250;\223\254\r=\264<b\274\034+\003\275i\3704\275d\021<<\326\265L=\322\202\223</\2515\274n}a=\372\262\024=\220w]=\273!\245<\266q\220<\324\312\320\274\343\213\220\275\207\205\367\274\242\376\333\2756\315L<\241\301\327<\003\210\377=v\255E=\243O\036=L\262\212\275\243\031e\274|\313\005\275\212z\037\275\263\332\307=\237\300\031=\237\026\t=\330S\220\275\013\365\341<\002\202\000=\357\254\361\274\027\345\351\2748\334\r=Ji5\275\363\017\003<o\316D\274R\216\307\274U\025p<\357O\216\274\263f\315\274\346R\336:\277\325B\275\344\014M=\247\337\374\274\003\332\347\274\342\320\303<i\227\306\275*\314\303;\331/^\275a\366\264\274upB<\203\216{=\224\275\326\274\331x\210\274X7\036\275\304\231\026\275\031\177\246:o\036\006\275O\006\371<J\341\356\274@\302\241\275\354\300D\274\240\"\356\273|Y\240\275\210Y\031=\357\237%\275\316&\272\275\365\316\033\275a\361\213=u\026\330\273\013S\007\274\323\255\347\274H\0147\275\0135\327<\320e\026\275\024v9\275dT\347;\372\234[\275\"=\023>m\207\201\274\262\342\010\274\333\332\010\275z\333\205<&\355e=:\374+<!\002)=\225\310D\275\277\205\266<h\234j<\006?\002=\0273P\275_@O\274\231\2753\275\306\024\274\275\247\335\253\275\212\211\265=\355\036\365\275d\244\207\275\337\233\013\2756I\021\274\013\323\331<\002l\226\275p\030\014\275J\214r\275\254\'\023<\246\022\303<\276\240\231;/R\235\274\033\335\233\275`;\304=\023\355\021=H\215S\274\313\334f\272\031\213=\275\260\267\025\2759\232\336\274\327.\277=f\222\241\275\235\305?;\266\270\254\272\'47\275\324\265\014=\020\000l\275\233\306*\275w\266 =\264}\256<?\372\274:\214J\016:#\267\020\275^\277/\275\265\311\346\274\340\270\035=\344\241\224=\251\000\253\275\023\006&=H\302\235=,2\267=$>\217<\270{a\275P\311\341\274\230\270G\275\3415{\275\227\356\274\275\374\326\t=?\314\021=\"\374\303=\013\261\321;dJ5=M\230\\\275\244\341\021\2748\376c\275\037/\224=\314\325\265=/\010\263<\010J\213<\230\t6\275\004\205\246\273\300\343\267<.\t\221\275\025U\022\274N,\023<J\366\204\273D5\274\272\017Q{\274n,\306\274PbS<\'tR\275\02341\274\005\004[\273,\305\013\275\377\007<=\025\235\030\2750&\301\271\"{\343\274+\321P<\224H\343;\306\317\273<\306:~=\227\014\214\274\023\007\214=+\332\362\273\335m\223<\230\ra\274\355s\260<\013\274c=\377Z?=e\374\234=\372w\354\274\260>\357\274\371\224\323<\316S\025\272s\224\246\275\"/<<E0\277\274\317\010\247\275$a1\272=\301\004=hH\373<\007\337*=k\330@\273\213\357\371\274\235\014P\274\335\300\025\271\232\200S\275\203\023\005\275\003\006\007\275\245\203\230=\306\361\222\275\300\367\252=\033\257>\273b(z\274n_N=\002\037 <\225\034\267\275\004M\350\274`B\202:6M\001\275g\322\260\274,\256\364\275R#\035;V\267\351\275\0013M\275 O\202\275\213[\355<\366\027\334\275\200\367\221\275\356\253L\274F\245\233\274\305\027\244<\251\357G\275y\n`\275\347K]\275\331\027\216=TJ\257<E\014(\275\235\301\252<l\252\240\275\307\316@<g\230\343\275\177,\001\2750\002i; .\"\275\246\375\270\274\367\371p\273\316^;=\327H\340\275\257\212\177=\035\3028\275*\315\371<\277`\000\276\377\216\237\275\246\257\336\274X\016\314<\026\227\242<\213\340\253=\341\332c;\326\027:\275$Zi<?xg\275x\"(=\246\367Y=\023hX\275.B\006\274\363\020K=\351\nC=\305o\312\274\336\336c:\344}\211<\321\r\214\275z\231x\275{a\216;x\221\t<\225D\262<&Z\321=\350-!=\216h\327<\222Il\274\356\261\277\274b;\362\274}F\264=Q\366X;~\363\226=\271\000-<R\243\234\274W?\333\274g\202#=\003\215b\275\204\200\266\273\364*7\275w?\262;\202\206\014\275\231el<\233#\340\274\315\001\007\275\265\260\031\273\037\245\005=E\211V<\014\216\032\274\241Tn<\013\247\255\275Ew\n=\326c\277;jp!\274N)3=\224<1=k\242\005=\036\340N\273\333\\q=\356XT=aY\222;#\247\332;\202^\307\274\325\240\"\275\311\3200= 7\304<\"\204\027=Y1\314\273\305\341)=R\375\356\274\003\031\014\275H\214\204<\372E\243\275\225\025\361\275\22435\275\342D\315\274\177\223N\275=\350\360;\244\203\334\272\354\306!:\347mW\275\361\317\373;\353}\246\274|\370\035\274C\344\317;\177\375\254\275\266\262\332\275\275\341\312\275\302\014\332<\005x\034\2759p==\005\247p\273rh\202\274dt\265\273\253\005-\275O\223\227=\266\262H<~\037\304\275\264\001f\275S\222C\273y\212\375\273\030\032\017=P\022\3227#\034\034\275\020!W;r\250\014\275\236\2202<\t\')=\256\323\200=\016\341\000\275u\365|\275`6\322=\203\221D<_Z\014\275y\316\231=w\223!\275x\227\251\274H,\233\275&\024\250\275\365\224\311\275\375\374\313\274*\n\304\2740\371\026=\343\247G\274D\273\211\275\333\336_=\250\273\262\2753\001\302=u\244A\274\030\352\001\276}\226\244\274K#$=\351\372I=\307]\344=\204\010\310\274\253w]=\037\033|=\021\341\354\275\002t\334=2\213$<\367\374j<xy\306\274*Al=\224\326B<@vK=\003\363\t=m\210\323<\247m\345\275*\321Y\275\036_\013;\245\257:=Mz\010=[\t\354<\215\234\373\273?\215\231\274`(c=\265a\'\274\206\204\210\274\355|c=l\367\241\275\327\266\245=\260P\263\274#\316V<\300\346\206\275\036$ =G\204\021\275\230\037*<\261p\230\275\270\273$=]%\244\273\010}{<\377\330\210\274\030\256\205\275\336[\000=\t\r\302<\234\002X<\351\331\222\274\267E$<\222\003\335\275\254\331;=\301\213a<uV\334\274\217\244*=\371\2421=i &=\312\3219;\364\356e=p\315\243=\356\246\353\273\320F\2329\316k~\275\r\007c\274\336O\245<\353X\265\274\273\303\375<\250\306\016\275\024\372\003\274\356^M\275\243\375\240<\000\342\r\2750[\347\275\277\232\366\275\340\013\372;\200\000\253\275\347\342\231\274\230@b=(x\320<U\204\256\273\205R\253\275\305\217^<\314\223\236\274\313\201\331\274\232\367\341\273\357P\t\275x\354T\276[\341d\274\343k\225\275q\022\317\275:\020\360<\300\031\246;\272\023\230;\301\023?<E$\002\276w\320\345=\326\307\231\275\201\223;\275\324<o\276\030\374;<iYp\274\320JU=s\177k\275\274\211\262<\352\346\322=\010\272\214<\361\335\034:\246\205\306<\217\003\305=c:\033\275\233\264\210\275&8\277<h\206p<\265[\255\275\334j2=+\006\'\275J`\017<\310<\364\274\316\372\017\2756\350\225\275\245\314W=!dp\275\314\210\276\274\257C\241<\254\334}=\246\"~=d\016\374\275M\001<=\305[\243\275\204>o\274EB.\275\007`^=\376\225\240<\n\247\315\274\270[\304<\374\226\'\274MN3>p\376k\275\024.\\=\351\301\246\274\n=M=o\351\034\274{d^<\371(8\275\210\003\014\272GT\354=\346\276\342<\220\262\364\274\253_\300;->\022=\215\316\025;\312\361\272<3$\r=Gs\325\274$~\000\275Q^\007<\274M\324\2744h\341;\236\037Z=>\305\013\2760k\216=J&\303\273\036\320\314<C#\372\2758\303\274<Z\'\001;d\354\006=o\220\242\275s\r\\=\360\246N=\325\203\321;\231O\273;\222\316\223\275\225$\227\272\341\234X=9\2077\272\374k\244<\263\221\337\274\353\276\310\275\300pE=\t\331\t=s \352\274_y\034\275\227\031f\273\372\324\353<\301\251\274;\212\315\250<\331\020\222<y\315\301\274\000\266\251:\036\014\245\275\025\263\250\275\245\014K<?:O\274\022\203\000=\362X\277<\014\217\271<\311\236\234\275\315h3=p4J;i\2547\2752b\310\275\356\036\016=I\366\310\275\0233\243\274\307\231O<\313q\224<\234\323^=^^\234\275\036\2552\274^d\365\274G>p=7sv\274\246XN\274K\025\317\275\217.7;\344\234\236\274a\361\264\275\230\372g<\004\235%;\300A-\275\253\343\r\275\220CM\276}#\216=\n\271\223<E\330\311=\205\306[\2768\277\316<\017]9\275\211\243\031=9\301:\2750W\010\275h{\321=\236\272\014<;|\304\274\264\264 =\306\255\222=6C\345\273Z\335s\275\3748%\275$\'\323\274\2067\221\275\325\317\262=`ut=\014\202\321;\260\306\036:s\320\020\274\205D\212=\306\260\237=\350\'\272\275\000\271\013\275\317\257<\275\303\335S\274\307\031\305=\341\256\003\276\244\024A\275\231\024\340\275k7\261=\372\257o\274\257/Z=\032\265\301\274H\034\215\275\014\320\225=\317i\356<\352S\334=\364:\265\275\245\211\023=l\304\251\275W\371\020=\263\356%=\334\217w\275\321\036\350<{t\252<F\242\305=\206.Z=\261l\270<\030\341\220=\014l\276\273\234V\014\275\271\002\267<\226\026r={\322\211\275LA7\275r\355\000\274\324.\010\2759\250&\275\321z\031;\276\375\000\276l\024\333<\206\302\311\274\236\'\201=\363\266I\275\303\t%=H\303\354;\227\213=\273\263\254\211\275\244!\250=)v\222\274l\330\262<\034u\t=\202\016\254\275\235\303\220={\213[=H\310\\<\355\0376\274\361$L\275\030\374\255\275d\205\375<\351W\000=&X\363\272\214\302\200<k\"\r=*\337/\274\372\255\245<A+<\274\020\240O\274\226`\227\275>\3772\275\361H\203\275\027\007\372\275\267\235\231;T\022\334\274G\216\031=\210\366\260=W\241u=BJ\\\275\213\213{<\361\274\007=\306\030\305=1\202\275\275\211l[;*\322\t\275\n\201\276<\214\3635=\306\256\200=\3771`=\257{\006\276Y\303\342\274\020\355y\275\222\301\'\274\327\027/;\304X\356<v\260\216\275\3517\006={\204\'<qNe\275\034\252\'=\316\271\334\274\036\322\030<0\200\306\274\3317_\276(i^=\030(\014\275A\217&=\204\t+\276\344\032\215\274\363tC\275\346\332E=\246\346\226\275\324\342\210\274\006W\237=\312\265[\274\264\254\021\275|s\304<h\201W\275\337S\352\274n\034\217\274k\377\224\275m-\021=\034\273\244\275\004*?\2749\025\251<o\265x<B\305\037\275\r!\231<\244&\210=82N=\2418;\275\340\026$=\217l\363;\260\265X\275\277\304\245=\323y\023\276F\360\305\274\365\031\312\275\202\014\375=\2155R\275\021*p< V\364\274\353Y\206\274[S_=\235\242\334<|\314X=\007x\346\275\315G\331<\273\332\247\275\210W]\275\210m\240\273\214\003_\275\230\332\026\276\374h}=\312\016\n=\345\315\245<\244\002B=\0208\373<\234\256\215;\201\250\327<8\237,\272\256\r\313<0\001\031\274\356mi<\243,\247:[\367\222\274R\210\215;\205 <\273Vw\231\275\346\307\345<\247\261E\275\274,\216=jgI:8\361\325<\220\206\216<D\261\262\275\325m.\275\312\261\232=\016rW\274\213\336\244<E\341\303:\355\t\261\275\021\300\243<\365\037\221=m\224\203\273@7\310\274\240p\240\275lj\246\275\004\007\002=\276\367e=\225\332\353\274\354b\316\274\262r\'\275\275u_\275M:\222<\222\022B\274\356\327\";\017v\372\274\n\024&<\246\037\253\275\356\333\276\275\ni\343\274T\260x\275\305\370\333<R\256\023\274\373\256\211<\320\306\206\273\371\257\202=\275\304E<\331U\251=z0\360\2757\354\004\274\227\245B\275\265\332\233<q\035\357<\000\003\257=t[\354<\262\225\262\275\333\250\272;\2418D<\222\350\025\275\212\tH\275\'\233\004=\'$f\275\252\335\216\273\245\233\311\274H\\6\275#1\236<,j\233<\333J\027\275-\227\364\274\237-\031\276\002\250\341\275\200\253\366<\254\253\004>\274y\203\275T9\002<\260\005 =m\'\317<j{\246;{\221\306\274\006\006\257=c\346^:\212\242\233\275T\262U\273C8\213\2757\013\026\275\221\342n\275\357\325\206\274\177|\243=9\270\231\275lN\207\275\224\0370\270\324\327\1779\264\345\017\275\343\t\251\274\311\261\004\275\331=E\275Pv\205\275\211\374H\273\000y\024\274\215lh\275\037\007\037=\267[\024\276\t\\\030\275-\253x\275pV\005=\014h\022\275\013%\202<\305<\010\275\325\n\312\2734\245\212=\376MQ\2747\037\273<\226\312\253\275d\021\221=\r-\204\275\201d\000\275m\363\3479\002A\037\275F\336 \276 \372\311<\224\005\275\273\262\347\037\274f\"\203=2\271\276<\361\236\231\274\'`4=\2303\177\273&\301\264=\377\033\243<\317\233E;\252\323\302<\262\230f\274\247R\\\273@l\331\273G\356\352\274,\263\374;f\314;\275\244\013g=\r`\\<\310k\244=\245<a<Ccy\275Ft\265;\217\234\334=\361\037\300<\226\035\323<n\300\023\273\354C\314\275\266(5:\210\324\257=R\375H<-\272\014\274\372Ht\275\231\352\252\275\320\351\246<\214\330\256\273\322\366\035\274\026\3377\274\022~S\275\274\370\254\273\222\006k=[\020$=\320T\267<X\356\301\274\357-\376<\227\221\314<W\024\273\275\332\371\006\275<a\261\275\361x\362=\355\010\267<l\320><J:\314<\332\253R=EjV\273X\251\001>1o2\276\226dC\274\352U\217\273\331\333\034=\307\335w\275\337#N=8*\335=\220\266#\275\260nt;\001\036=\274\304\335<\274\373\212\205\2753\371!\275H*];uY\027<\t\242\034\275\307,E\275\344\024q=\345\353\003=\377@M\275\212\017\022\275\336%\257\275\231\035$\275\243\302\325=\251p\345\275\357\240\332\274\247$,=5\321\213<^\323\032<G\360\363\274z\037\201\275\262;\003\275O\262}\275\031Nr\275\210\367M\274\217X\324\275\321\252\360\274*f\341\274\273\277\004<\322\245\221=\352\236\363;\024\312b\275\276\314\201;\242HW<\332\320Q\275\010<\233\274z\0246=\032\343\211<U\361\006\276a\273C\275\355\007\252\272Q<\257=\236\301\337\274c\021\235\275\205\\I;\0340\200\274\331?\226\274\257\272\017=\351\346\226<e\204\242;z^\223\274\263\033\033=\025#2\275G0\374\274\264\037\274\275\246M\000\275uO\261<9\3149\275\326\316\314\275\306\026\027=\014\345\345\275\034\230\026<\030?\266\275H\356\203\274\005\206\246=]\231\231=\262\225\036\274\351&\305=2D\323<\277\253\227\275/\221\301=\217!j\275\243\361\376;)\270\347:\210\216W=Ja\037\275\226iC<\033\021\000=z*4\2754/\216<\361\303\274=\220\272&=\364\310\347<h\002\307\273\244+\343<\033\006A=f\352\n=\363f\267\273\377\206\020<M\024\300\275>\242 \274\316T\277=\213E\334<M\"\301\273!c\314\273\315\306`\275\214f\221\2724*\355\274\021\246\202\274\3236\212=\346\316\204<\004Xv<\216 \351\274\362\374:\273\267\307\350;Q*f\275$\030\274\274\343\356F\275\322Aa\274#\002\326=\027\340\205=\342j\224<Q\023M\274\347r\367<\364W\347<z~\024\275 \013?=\367q\301\275\016\013\\\275a\021\202=<\260\255=|\323\214\272\227\203\010\2756\214I=\032\0035\273\266\322\353<\016B\036\275_\263\307;~\220^\275\'%\251\274\373<\315\274\211_\276<\255\220\333<;\243\250\274\023\020\260\274,`\300<\3138\214;\217\021\276\274I{)\275\357\242\253\273\2425>\274c<\264<\304\331\352\275\211a`\272\037\237o</*\202\275M\356a\275B\267z=?\272|\275d\346\370<\207\377\207\275+\250\274=\035`\320<\363D\213\274\213\247\016;T\206\r\275\222\217\035<7Y\002\274\352\370Y=\341\0045=\"\211g=\330\313\317=/\267$>\260\273\023\275\2502Y=\347p\375\275\334S\005\273\357 3\271\355\376\367<\212\201\210\270\\\304\255<\027\036\370<\034s0\272\374\331\013<\344\302\225\275\221\324\323\273w\313b<\332\321\237\274\005r\036=\363\276\014<\277F\035\274H\211\372<$2\032\275\327\336\211=\223j\323<\'7\310\27532&={\277\362<\240\334-=\'\032\335\274G\276\315\274\353R\370<\213m\227;\027\321X\274I\361\330\275\240\373\256<\361%L=\356\300m=w\372\\=\324~\251<\334\004.\275\014\326\357\273\247\213\214\2751\002\007\276\330\316\022=\244Zl=\370\350n=I\t\212\275\221Z\321;\340\336\354<[P\212\274\017u:\275Fqf<\354b\262\274L\213\331\275\350n&=\332\373\206\274\254\365\001\275\264\214Z;a\305\255\273\321\261\353<\236\r\317\273\r\306y=\372)\213\274&\215\224<u&\302\275{#\333\275\230Q\376<^\356\311\274\266[f=6P\204<\316\242\267\274\241\037\321;\024\237\262\274S7y\274\315 \246\274\333MI\274^o\027=\\m\210=\204E\235<\033\337\207\273\345\007\317\273\365\304\016<C6\241\274\332\255n<h\261\000\276\226J/\275\223.U<c\314\236=Z\352\347\274+\0016\275\215{\220=c\216\214\274\375X\222\274\260\216\236\274\376\025\000\275\001\304\211\275\274\376\022\275:VN=0\212\364<q\326y\274\371\231\273<k\336X\274\355\351\224;M\177\257;.\365\332\271\021\232\321\275\373z\275<G\005\317\275\204\326y=z\326O\275\322\274\035\274\017fN<\247\331\261\275\356\273\274\275\\\254\344=?t\207\275\213\255\014\275\271\270j\275\311c\226=\363\231t<w\254@\275\367}\025:R\243A\275\031\234\235<F\337\254\274\036J\026<\332\227g=\366\323\003=z$\313=\275\273\312=\314\312\224<\240N\344<aH\301\275ip\214\274s\016*\274\364\227\277=u\371n\2759H\253\274\351\342\000=?h-=\274T\020=s\261\221\275MW\274\275\277\256\251\274\375\342\251<\202\326H\275\213\030e=\371&J\274(\321\037=%-\n=\266L\272=\331\225\241=\235\271#\275\363/f<\310\243\272<G\202X=/0\370:\353\274\003\275\236m\247=\330\331\021\2750\220\202\275*\260\365\275c\351\025=\341d\"=\014?h;\232\344\260<\271V\200\275n\313\2529h\316\023\275z\222\235\275\342]\033\275R\224\260=\335v\\=\3307\264\273\231Q\337\274\342\357\003\275\310\371\222<\333zN\275\004h\272\275\025\212\307<\372\236p;iNF\275M\007\340<\006\020\350\272\255\227\233\275\342\\\205\274\3320\244;\034\252\022<\0359\315<\376\302\254<B\266\016\275/\313:=\004\007\371\273Bd\263\274T\374L=\220\206k\274\221&y=\272\262\025\275\274\024\360;\343\022%\275X\257\325;\200\235A\273\300|\351<kp}<\035\310\022=L\376R=\367\231\362<\206\221X:\245\336\342<\025\243\027\273R\030\243\275\220\036\\\275\324\241$\276ID\322\275\305]+=\226\252\376\271\320/\016\272\3471\367<\343z\201=\235/3\275\317P\300\274fo\006\274\035\006\303;`R\000\274\004j\252\274\273\204\304=\372\215\247\274l\024G;lY<\275F4\242\274\215\240e=\035\007\205\274\372\002+=_q\360\275=\035S</\264{\274\344\'\304\274\274N\366\275\r#\006\275\307\r\244\275\343\231\376\274\027DH\2754D\314=Kp\257\275~G?\274=`1\275\224\036*<\222\017]<\301.\225\274T\3463\275`\277\215\274\373\2259=\354\357\351\274\244\260\300;\324G-=_\374G=\026k\200=\206n\242\275\234B\235<5Z>\275\301\010\312<\266L\202<\373h\200\275\226H\241=\010\'\001\276T\372\016==\"\274<\377o\350=\326,X=\211\241\277\275u@\207\275\374\026J\275\325\211e\274fq\344=\245{h<\370\327\370\274\344(\337=5[\324\274\212\034\215=C\327\227<s\303\r\2744A\332\274\355\037\233=\342\327\306\274+I4\275\312\035\237<!\365\323=\351\035\037\275\344\255\336\275\230\214\240\274zx+=\363&5<\361F\212=\035\246\217<\351\355\254\275k8p<\234c\030<in\322\274\034\310\200<:\375\234\273~U\215=h\001N\274l\230\001\272\271\275\264\275\303M\276\274\205\006p\275\334\273\273:\022\036\006\275\217\002\177\274\003(r\275\311;\240<0\315\004;l\312\333\275i\201P\273)\203m\274_\332\267<E\201\255\271\274\271\264<S\177k\275kgo=\210T{\275\006\360\340:Y\312Q=\357\207o;wb(=uvT=\346\350\306;\334\252\205=@rY=\315\363\030\274\000\211\227<\253\243o\275Y\031;<\3641F=oXl=q\3559=\"OD\274&OE\275\371\003\204\275\247\236\201\275Y\220\264\275\250O\243\275\252\264P=\017\372\340\274\342\276!\275\376k];9A\027<\377\215\\\274\030>\252\275\256;\261<\007\372!\275\036\210\312\275\204\'h\274\243E?>\327\215\213\275\311J\n\274\310H=\2754\n\345\274fF\242<\3049\322<b6\025\275|\244\360\275`\311\225\275\r,\326;\\\020\002\273\314\001\300\275\310\317\036\275\323\252\345\272b@\366\274\273\t\252;\223R\377;\2477]\275H\206c=\220\327b\274\332\310J\275\376\227\226<(V\034=\227(\230\274\0207K\275\314\246\010<Jy\203\275eg\221\274\244\317\250=\351\016\004=\244\227_\274\264\030\025\276\326_\225\275\033}W\276~\347\033=\215\\\300<\002\2605\275m\026\366<\021\014W\275\211A\361<\341&\013\275\326I*>:\300g\274\242\006\363\275\014k\200\274tI\001<\213\204[\275LP\300=\361\357\336\275?\211\322;<a >\3218\033\272$4\017=e\375\006=\220\204\326<9[\346\2743P9=\340X\371\274Q\020\031=\200\320\020=A\266\334=\344\350G\275\311\355\300\275\346\r\006=\253\375[<\352\234+=\364\\\r=\277\003\302\274\264\345\272\275\212\217\264=\302d\262\274\264\213\301\275=\026\230=\3604Y\276zF\337<\370\013\222<B\300\200<d\271}\275\010\007\224\273\032f\003\275\030\323\336\275\033\265%\275\252\203\214\274\271o`\275\366\213\323;\247\244`<\037\236\356\275\360\223\247\274\023\016\356\274\014\300+=$*4;!\023H<\"\r+\275`W\200=x\300\323\274\331my\274X=\306={r\214<\333\006\220;%\270\266=\317\220\272;\311\030\266=\347\364\013=\263\305C;m\375\270\274\230\362F\275\034D\021=\255^!=\321w\311=\00179=\342\'5=\347\360[\275\320q9\274\332Q\205\275c\333\006\275uW\366\275\272\226\232=-\346\030\275\273e\323\274\373\274\261:N#@=Sgz\274\351gK\275\\\326m:\253\r\254\275\267\370\210\275\027\353\234<\304G\321\273\333\277\037\276\3766+<\333I\214;^JV\275\304\242\312\273\t\236\031\274f\240;\2747\212\017\276\272\2745\276>\212\253=l\241d\275\256{\237\275U\313\"\276\251A\030<h\203\357\274\350\\\367<\006\207a\275\303\3644\274\353\007\313=U%}\275;\366b\2753\235\020\275SqU=\305\211\\\274\364\022\333\274\377\016!\274\234\ne;\006\262J\275@S\026>\017\231\234\274\010\017\332\274\365d\357\274\250\265\310\274\230\306L\275\351$\241={\251\032\275(\351\020<y\340\034=)\252\272<-\370\305=n/\226\275%\233\212=7\2026=\215\377\213<,iY<\212\202C=\255EQ\274\010;{;\250W\251\274C\016\212\273\'I\n>\027\336]\275\026\0072=\256x\307\274\001\010D=v\211\215;\"e =\316\263\301\275 \315\033\275\326Y\311=NX\255=W\267\242\274\361\204\234\275\322`\'=\355\017\206<f\241X<v\023\322<\221\325/\275sh\203\275\355G\277<\264\356\262\274NfR\275\317C\267=\363\343\"\276I\240\010<\275G6\274\336\300\333<\263_\"\276\372\234\014;f\372\234<\261\233P\275\372S8\275\252V\202<\030zX\275\250\273\270\274\343K\314\274I\305=\275\206\352\227=)\364\334\274<[\014=\025\276-\274\023\215\3359\340\217\207\2743\314\251<\320\024\205\275\246\2178\275\'\023n=8\032I\274\010\366\266\273@\226\020<\206@\314\274CDU=\261\271\204<\373:\221;\326Z\006\275\352<\210\275\326\251\274<!\3224\274f\025\332=\323=\200=b)\243<H\223\242\275\315\022\222\274/\271\221\275j\'\037\273\2753\017\276GFT=\312\r-\275\036~\305\274V\207\323;RH\350<\361\220\021\274\265\032\201\2758\211\261\274|\020\020\275\332\234\233<\274E\244\273\244D\032\275\242$\354\275\263\203\002\275\262#\013<\244\325\214\273\233\271\353\274Bu\005\275\333\377\342<\320:0\276!\n\216\276`\366\024=\214\237&=\"g\007=:\253\263\275\366\001\244\274+7\227\274\271\026\017=\235*G\274R\261\177\274\370=u=|J6\275\311\246\277\275\262\257\360\274\202\231!=\n\014-\275\014\0210<\347\336\333\275(\177\035<k!\215\275\037\345\356=`7\235<\362\331I=M\231\363\274-I\260\274\231w8<\027CH=\333\303\001\276\200\350\250\274,\221Z=(\375\031<\372\032\223=D7\023\276\370\377\207\275\n\347\236\275i\213\323=h4\311<\'\264H=rc*\275\210ay\2759\021}=\332O&<\201\031\240=\361-\230\275\234\014S;\251\000\262\275\337#x\273n\'\224<\255\0051\274\033-\221\275\250\333\010=\014\324\235=\223\316\002=1\337>\275\353P\212\274\352\205\001=_\272`=\337\317\371\273$-(<\366\207\221\275j\0023\274\227(2<Ru\237\274\215\306j\275Q\246\306=\212\207$\276J\r\234<\242x\"\275\324_\270=\342oH\276|\2179\274\233Z\320:\201\004\033\276K$\246;\365\272\261=6\3402\275\310\n\310\274\307);\274x\"\230<u\204^;\212\304\201\274f3\364<\264\373\212\2740\340\036\275\324\226\374<\376\367\000={\372\341\272Ai\364<\204\346\251\274\003u\213\274\3314e;\340\267\260<\322cr\274\304\030\327<J\337\024\275C0v\275\013;\341\274\005\006\340\275\240\335\207\274\266\374C\275\230$\303=\2018S=\343\371\270<\016w\027\275\035\307!\274*0\323\274\354\013V<\375\r\003\276U\300\222<s\364\203\275u\201\037=\333\302\212<._w:\337\261\221<\200\301\324\275\300-\317\274\344\344i\275\304\265\221<\340\023\336\274b,\356<\362\3247\275|\310\212\275\265O\304<1D\277<\262jI\274\377\356\331\274]\325f\274\256\366\021\276\360\333\234\2768k\n<\355aB<\2079\010>\023X\267\275\354\275\246\2747\252\024<\303\344i=8\261\206\275a\360O=\312|\211=\026~\275\275}\035l\275%n\360\274\226\314\361<\255\337A\275\235\304M<\224\225\013<u\322\227=V\277\n\275\272\320g<\025\320\323\274\327\224\321;\333=\243\275\366\351.\274\021o>=\210[\225<R\273x\275\"\004\031=:\2329\275<y\316\274\306\311\206=X\373\304\275\363J>\275\225\255\267\275`\n\031>?zW\275\251R\212=*\253\244\274\3409\\\275N\221!=\246b\001\275\356\335M=5\312:\275\207U@\274\001o\353\275\357\014\021\275\333\202+\275M\210\306\273\223r\225\275\330\245y<\332wh=\325b\026=N\275\301\274\001\360\032=\245\344\016=\027\357(\274\242\232/\275\026\274#\274\331S\250\275\223\031\250\274I\263\216=\026~\367\274{\377\270\274$\350\203<\333\322\007\275\026-B;n\256\275\275T\207\001>j\243\001\276\177Yr<;\317\244\274\347C+\276V\314\274<+@_=N\033!;\340\326\366\273\331{\313\272lp\274</p/<\250\022~<%6\344<`\272T\275\343\034\247\2748\367\323\274\361Co\272\334I\027\275v\r<=hM\234\274\307\3208\274j\275V\275\311k\030=\226^\023= \0336=\3676\250\274S>\252<\'kx\275\356V\203\275\006x\030\275\r\225\027\275F\005\374=\003\320~=\302I\273:82\326\274h?\014<[`L\273\270\024\376=\"]\341\275\360\257\201;PXH\275\376$F=\315\003\246<\202:R\274\2540\013\274Mn\215\275O\354\262\274\030\000\274\2742\377v<\360\177K\275\2539\273\272\267\357\341<6\031\007\275\353\256\347\274\374\326z:\r\202\213<-q\213\274\247\276W\275r\244\023\276\020\266L\276T\305=\276\020\250\316\274\300\325\225;\215\371\017\275r\031\266<k{k<`U\211=X\237\214\275t\2654=w\034\232<\362\020\361\274>\007\017\275\013\276K\275I\350F\275\357\023\202\275\375\324\232\274\333<\352<jVC<NcU<AsH\274\245\352\233\275\367/\371\273\252\361K\275AkV</x\250\273\262U\362\273\236\002\365\275M\215K=\373-\372\274\213\330,\275,\222\353=\262\342\311\275\250\330w\270\237H9\275;>\275<\272\217H\274\340\262M=\005\260\211\274\3559\244\273\235\357\017=\224\362\224\274\371\243\267<\277\031|\275\326]\205;_\343\027\2766\004\225\274N\242\266<\216\211L;0y\000\275)\234s\2746\014d\275\005\236\006\273\030\217\024\274r\244p\274\333\005\240<\361X\002=\016Re;\265\030\253\275e\033Z\275\245\262\375\273\036\207\203=\206#a:\222\203m\275\236\225\304\274\352r\224<\245A%<\373\247\241\275\375{\234=\302\"T\275\001\260<=6-\357\272n\355\026\276\231\237\037=X\310\260=\364\323\016<\264;\320<]\363+<\356DV<\006\346?\274\020}\020=|\r\373;\332\375\367\274\335W\243\274L-V:\377:\023\274]p&\275\004\367\365;|\204\007\275\000\351t\275\251\201\306\275\210)\315<}]\236<\036$\334<\310\215\352<\251\275^\274\t\355\330;\3706\214<\032\350\024\273\215\313g\275\254\236}=\263}\324<\210\375\244<X\350\024\273u\262\354<\271\323\327\274\360\037)>\336\267\257\275:\034\243\275\3715\370<\213H;=\341\337\241\274\236\371!<v\274\213\275\352\240\236\275s\357\331\274Me\260<\372\364\017\275\213E\301\274+\252\373:\024\323\313=z\007\240\273\211\203\212\275\210\333\301\274\337\263\236<\347y\320\273\312\037\230\274\230-\257\275\373\362\316\275p\300\'\274\361\360\234=\351\206\210\275\236r\235:\332\214 \274?\375J<W\370g=\215\354L\275\320`\203=\376J\007<\320~\304\274\002\r\330\274\217\355\320\273\242\020Z\275t;:\275<\206\374<\rI\207=\344\363_=\370x}=|y3\275\020\030\335\273 \303\014=\204\313\331\274\306X\002;C\023\262\274\242\366\363<\027\252\024\276B\301\204<\261\025\367<WYp\274/-\236=L\355\205\275\242\243\305<\031\346\203\274h\357\326\274\265\211\372<l\235\350<\"\351\323<\224\372\034\271u(f=\243\324L;\243\330\322;\t\201\225\275\235\010\311\274.\326=\275\020h\211\275\317O\352\274\010z0<\314\210\303\275^v\214<\250\216-\275\225\000\256\274\312\310?=.\267v<T\014W<\007 ~=\3355c=\377U\023<\0303$\275\033F\311\273\321\2313=~\014\230\274\272Zz\275Q\363?\274z\275a<\203S\036<]\237\344:\336\007~=\010%\201\275\212\275[=\033r\033\274\243\301\362\275I{\255=.{\350=\223\222\221\273\372\025(=\362,_;;g3\275A\372e\275\351,\325<\032~/=\363\325\245\274v\256\353<H\267/\273d\336\006\273\356\306\324\274P\002\033\275\306\035\036=\237\tb<O\0323={?9\275w\326V\274\270Yf\275\244\t\251\2742\204A<\311\241\022\275V\203\304<\263Y\002=d\312,=\346\265!=\322}\301;\350\005\267<\227<\000=\022\nr\273\276d\372<\254>\223\274\203\316\351\275\207\001\264=\321x\225=2\375\002=\272\366\021=\372R9\275\005\351`\275\235\366@\275\351\026\215\273\222}\276\274;\ta\275\371\t\2437\364\032\240\274\274W\027=A\327\373\274\274\"\"\275\"\276\242\275\'lJ:\351W\345\274\253\352H:\205\306\237\2753\205o\274\236\235d<\325\320\245<\341\\\220\275L\347c<U\352\336<\241\032E\275A\355\214\275\031\271\000>\243\316\026\275\340\221 \275\314E\331\275\234\324\005>\013\010i=PfZ\275:\2253<\2645\332\274\235\340\027\275\027\243\326\274\362\013O<\371\222\320=jf\301=4*\271\274\241\361\000>i\335@=%Dv=\352<\217\275\034\225E\275\304\264T\275\306I.=z B=,\275\035\275\344\317E<\342\022V=\033\204\254\274pi\353\275\257\3566\275Q;q\275Jn\245\275\246\334\303\274}\014\241=\231\3533\274)\2241=\001\247\020\274\200\342\313=r\311y=\325V\331\274\217HT=g\334`<H\231:\274\t9\245<F\332\300<\016*Y=\346d\230=\341)\211\274\336\277\363\275\226)\200\273:\242D;\312#\033=\363Wu\274Z\022*\275%^@\275Q\2676\275\352\033\341\274\037U\205\275\3306~=\027w\215<\205\177\364<7b0=\013\237\331<\312\n\032\275C\315\240\274\177U\013\275\305\344m=\330j\246\275zF\372\274\016\371\030=\255\177C\274\334\236\320<\026\307\351\274\373\350U<\236\317\200=\326\315\232=\267Q\345<\376W\022\275^7h;E\0308=\250\010\250\275ma\"\2758\2367=\302\177\327<P\313\\\275k\367\242\275\343\374\243\273\3769\334\274\\\302\247\275,V\352\273\362hf<D\021b=\027\3245=\336\264\274<2\223]<M\246\004\275[\001\025=Q9\237\274\016\2726\275\225\250\223\275H\256\204\274B\262t=\276\341\273=+\3013;\n0=<G\253\312<\306yR\275M_ \275\350\313\001\274yRe\273\332D\241\275v\304N<\374\373\361=f{}<\363H\224=\363\303\217<\347\232\201\275\236\301b<\245g\242\274\000\374+\273I\230$\276\177\337\215<#\342\350\275(\024\024=5\234b\274\256\311P\274\023\231\022\274\355\000X\275O\260\n\276\311\330\345=q\337T\274Z\277\230\274\203\270\203\275\n\337\013=Rm\014=\260,\177\275\035\254.=6c>\274\366\005#\275r\201%\275\327`\266;\0174\265=\361%J=\037\024s\275\224\223\036>\333\\\265;\320\247p=\034\201\010:x\024\332<o\023\344\275\332\212\030=\226(j\275\241\245\275\275xuM=\273\317\274=R\"\020\275\323\202\003\2760\347\303\275\246w\230\274d\351\251\275\2677/\275\037\033\036>G\224-\275FE\002=\2615\237\274\005Q\204=\037t\303={K\313\274`\235?<\3335F\275\253)\013\274\374\006\004;\3056\'\275G\333\331=\311\247\316\273Ne\210\275_\340\024\276Z\311\234;_q\340<_T\226\274LJ8\274Ef\014\275r\320{\274\035\314\014\275%\037\217\274\263\322\316\275\225\021\360\274\327\351&=\231>\332\273\366\321\032=\374wP\274\317\235{\2756&\220\275x\267\366\274\356~\351:\rx\227\275\316g\315\274\037\'E\274@\301\211\274\241a&<_\025\237\273\270\347\014;\021\002\247=\363?g=\007\030p\2746\300\375\274_\037m\272\004\t\311<\205\013\224\273N\216\341\274\024\356a<\236\305z=\330\321x\275\365\264\246\275\372\313\245:\177\347&=\204v\334\274\3734F\273\022b\345\274\033\305\366<c\002`=\260<|=\363NX=\212\344\232\274\317\352\240\273\350\371+<C\034\301\275\333\347\336\275b\324\251\274\2162w=\034\004\254<\336B\320<\3237\250<[\223\254=\336\240\010\275\260j(\275\036\350,=\237\030\271\274D\376E\275d\'8<\265\227\345<\300\017\023=\215\251\203=gy\273;h\246\241\274\256:\212<\317\206\214\274@\354\340=+\227X\276\010\213\261<\202\037\014=\376/8\275(\375\256\275\336\030G\274\215\260Q\275\222i\344\273[\334\\\275\316A\031>\000\235O\275\372)v\274C\317i\275C\361\346\275\243/1=\200/g\275/\236[\2752\2572\274\243/%=\367ge\275E\234G<\365\266\260=y%`=~G\243\274s\352\275\2758\314[=\277\255\256\275\t\334@=W\357&\274ky\001\276\242k\227=\230t\006\276\323\331\\\275\200CU=2\3268>\312U\271\274\262y\356\275f!a\275o\263\320\273\323\264\367\275\3609\252=\'\337\312=\226\'\021=\215\315\227=\023\002\213=\037`\337<\277\032\240=[\357\034=\006U\030<O~(<\265/E\275\345y%=\003@\213\273\321\313\016>\366\005\277\274?V\320\275\010\014Z\275\'\227\247\274y}\210=T\207\240=\353\306/<lI\216\275\312\246\321=\264e!=\010\202\270\274\307\304\307\274\263$\263\275E\357q=/kn\274\233\3463<;\363\276\274\025\252\242\275t\242u\275d\240(=\0271\333\275\303\264\260\275\357\356\007\275\024>\245\274-\234\205\274\246\355O\275\346\000N\274\223\330#\273\016/G=l\372\245\273\311\307A<Ogw\273V\327\302<!l\'=`=\376<\364g\212<\371\257\025=\211Mj<\341\243\374<\250\031\277\275\321t\270;\315\217\006=\316\312\005\274\203\345\025\274\362\255\321\275R\222~<\344\252\326<Z\313>=\227\271\305<\304<\363<[:`\275\365\343i\275\356&\206\275\231\320\201\275Y\347!\2756hd=\232^\010\275\272\214\021\272\364\262Z=\277w\230=\316#\352<\220\367\342\275\360\355\265<\204\221\027<-\212u\2757\214\313<\337\034\303\275\360QS\274/;\256\275\346\177O=\216,Y\274!\016Q\275\274\242\023=\335\347\205=\030\374R\276\035\203\302\275\017S\343=\037\027\217<[\304\236<\373\345T\273}\361\022<\376\300\227\275\372Z\016\274$fm\274\016~\026\275\273\224n\274\372\260N\275q\3742\276j\244\006\275EZ$=\336\334/\275lu\021=\235\332t;u\2404\275\035\001A\275M\242\254=\030)\033=\223M\211\275\244\203\000\276\316\001m\273\242\3502\276\tp\377<\232?\"=\3474\324\275S\226\216=\330\264\362\274\212\301\202\275\275y\205=\204\215\250=\2446\230\275B\264o\275\r/\013;gq\322<\307<\373\275?\262\272=R\177e\275\257w\326=q\255\221<-\272C\273\377m\310<\314%\022=\337\317\267=O\332I\273\014\252\212=E\323\\\275V$4\275Y\215\245=^\261\262=\014\357\266<T\001\036\274\203mK=%\354\264\274R\322\262=r%\362\274\367\267\340\274\312\241&\275\341\362\264\274#\025\240=>\207\366<e\241\261\274\370(,\276\323$\253=\315\033E\274\313\305\000=7f\254\275n\246\225\275\006\203H\275\306\010\2039\2748E\276\235\266\215\274\206$d\2741\377\003\275U\363\371\273\337\025\223\275\016e\300=Q5\020\274<\351\004=\275f9\275\222\3053<%\222\273;\003{\204;HQ\265=\2574\223<\202\262#=\033u\203\274\253S(\274\244\232\215=D+\261\275\373\300\223=p\177\264\273Z\"p=\361\370\357;\354#2\275?\345\304\274P\355\005\274\213]\250=\245\014>=\221<\300=-\341\217\275\344u\224\275Y\310\274\275&\306\274\275\n\222x\275{\'t=k\034\001\275-(\266\274\243;9=\020w_<\030\362\344\274\302\2710\275\'\201\372;\263\361\027=}\250\324\274\236\026\216<$\010\264=\375#\317\274\300\314\003\276\216A\242=#\261\202\275<\264\225\275\236\257\005\275F\312\227</Mn\276[>I\276\311\366\252=\027\370\242\275F\3453=gm+\274\254\323o\275b_\215\275\364<_=\347\245A9=\330c\275\030A\367\273P\250f=\370\346.\276\237\204\200\275\361\007\221=\005\254\335\274\\\204h=\020mF\275\202k6;.\341\327\274\372J\333<b\367n=u;\244\275\240\314\307\275\334\022\203<\3439\306\2750\327\224<\306\023}<\254\n\316\275\264\250\262<4\205\376=p+:\275\345k\206=y\016\327\274\354\347\314</\342\005;j\243\023=\177=\246\274\215\225\027\276\220r\255<x\344\224\275\214W?=%\037\251<\021G\365\273\211\306\211<z/\022\275\202\262p=\273\037\275;\355\231G=\027\354\004\274>c\344\274\256\030\321=\022\230\261=~(\305<\02319=G\250^=\230\330\302<\267\262q=\275\023\200=\224o8\275\232\373\010\275\323\306`>\330\344\177\274\231\006F\273\204N\267<\270s\275\275\350\327\215\275\033)\275<\034\261\364<\216\n\276\275\227\241a\275\002\300\021\275r\325\013\275\240\246\210\276\003Y\022=\306!(\275;|\n\275\016wy\273\227\303>\274\\\351^=yQ\n\275\3011\356\274\224x=\275\260\207}\274]K\313=\274\005\260<*\325\261=%\344\315\274\177\375\340=\364N\'\274p\273\020<\204\036\225<X\262\016\276\035\334\225=\\\210\000=\322Jg\275E\241\264\275\221\306\275\275\374\333\024\2759\005%\274\203\027\264=\204{,<\234\001\220=M\244\252\275\357\3513<dp\237\275\241\223*\275\\\271.\275\243\324\205=O\272\\\275\022\270\017=\n\246\211<\251q\306\273l\n\200=\204\273\323\275\341\372\225\274+\343\332<\371\013\216\275\315;;\275@\224[\272\260$\343\274\312#s=\036o\226<[)\273\273\221t\234\275\316-A\275\215:k=\335\032\224\276\230\376\201\276\273V\232=\201\206X<\375\226\r>\020@h<}\343\326\274\210\2676<\331q\247=\000\217\035<\326f0\274vQE=\226{\350\274\202\255\370\275\254oH\275\352\235\313=\362\257$\275U?Z=}\021 :\332\326t\274ja\034\275\374\340?=\311\r\230<\232\035\033\275\315\227\305\275$\364\316\274\325\322\307=\330;\342=\"n\225\275\310W#\275\037\350\227<\010\361\004=\300\311#\275xSL\273a\035g\275\235\221n\275Y\227\000>\373\266\t=\334\000\331\272@\227\332\275\302H\241\2742\340\027=\245\024\212\275\216\350\252<Ef\221\272\257\307\260<\361\355\317\274\224`\303<\316\201\205<A\315\244<\312C\314\2749r\202<\177\353\024=\rWM=N\263V\275\340gg=\201t\230=\014*\375\272\2606\220\274\303,\002\274\243S,<wr\\\275=\030_=\320\344I\274\367#\035\274\373\021\213=\2728\014\275R\345K=\264\312B\275\013,z<\374zk\276A\302E\275\272Z$\275\222\016\356\275\227\303B\276^\347\177=\024\2565\275\210dj\274\014>\233<\001x\202=\304\316\260==0Z\274\334\232\244\274\003\320\273\275p\356\"\275c\337\373=\340\3071\273\343\316T=\212\263\010<\267.5=\353 \005\273\246\342H\275\031\356\265\273\"\351\013\274R\270\200;\365p\235;\362\337\265<\321\315\243\275W\232I\275MS\033\275.\257\032\275\341\252\370=\256(\325<\023`\306<cSC\275\336\027&\274 \274m\275\244g\'\275\305@\276\275\221\364\n=0\307\031<\267\354\242=h\271F=\234pV<e\354R;\322\223n\275\333Y7\275\356\273O<Z\023\"<\\}\036\275\215\367M;\032\320s=\203\365\024\274P\020\312\274\333\021v=\340\0240\275FR\367\274\003\2611\273\305\341\207\276\t\205\210\276\333\264v\275\360OE\275<\374\006>\202\344\007\273)H\315;_\376\022=\004\010\036=\331\265\305:>\3738\273\255`z\274\013L\202\275\222oa\275\334\1779\275>\243\232;Y\342\273\274\032\210\215=p\357\255<\336:B<\010@\004;\025\215\t\275\233\327\240\275\006\361\333\274\250\355\241\275\301\347\375<\250\205\013=V\251\260<3\235\267\275\026\315\236<\372q\000<\206\205g<\332\255#\275ni\204\275j\260U\275\373m\036\275\003|`>\223\302\016;\311;\223<\367\345\375\273\314\2752\275-~K;\240\273m\275M^\007\275Md\030<4\355A=OX\234\275\276\223\322<m\231\256\273Wp\325;\266\331~\273\302N\035;\302D$=-\004\n<\216M\241\275s\225!=i_b=\264\211\335\274\020\274_\273 \217\251=\362\305i\274\350\017\231\275O\323b=j\250\233\273\206\267\367\274\312\220\030=\352\360t<)sX\275\301S\252\275\204>T;Q\341A\276\375\316\261;M\340\261\273\251\375\025\276\325R\025\276$A\005>\353h%\275-\223_\274\211\2374\274?\364\240=\323\240\001=\211\222\034\275\013Z\022<fL\253\275;\261l\275\277$\360<I8\370\273\250\305\347<\330[\005=s8\203\275\2368F\274\226EB\275\254\322\234<^\303\206\274\035\263\014=O\262\350<\267O,\275\364\\\273\275D\352\323\274\272}\032\275\2728\025<\275mR>\225\3043=\351Y\232<\335o\256\274\311\3405;ZA\367\274\276\271\350=\220P\271\274\007,#=\220\010\265\274f7Z=\363\323\201<\000\356}\274=,&\274\220=\367\2742S\023\275\n\366\023=hM\254=\206\r@\275\225\362u=\267\035\\=\347&F\275\321\017-\275\375X\034\274\335\356\304<[\272\030\275\362r\214<\222\335]\276O\222\014\276Cs\350\275\0306@=\257\023\021\275d\251\205;v\266\322\274\250\275e=\033\206j=M\355\252\274\3706N\274Awi\275\266\214\034\274\354\352\350;\307\007\357\274_\274\332<ek1\275f\345g=\346v\206=\312\321\212\275I\2438=\244|\220\275\036\277$\276\357\034{<\364u\r\275D\020F\270\315;\270\274\341\354\342\274\314Gm\275E^\324<C\272\022\275|F\021\275\264\227\256<#b\370\274\214& =|\000\251\275<\3573=\342\261\236<\357\340\037;+-\246\274*\262\227\272\357\372\031=p\356H\275p\221*\2751\347\037=\001#\267;th\340\275\376\270u\274wV\223=.)\257\274\031A\231\2745\206\003\275a\204F\275\001\037\361\273\035\030\211\275k\246n:\336\'A=*\221\263;Y\t\211:\263\304s=\207\232\306;\270\022^9R\370\231\273w\003\227<X\207\242\275\244\310\267<4\271\352<\036W\232=51\226\275-k\200=\250\240\253\276\334B\014\274\300s\336\2746e\010\276\036\367\364\274L\231B=|\216e\275(Z[<\023\\u<?%\340=k5\210<!\310\201<-\256\200<\210\313=\275\362\276c\274\300\2207=.\341\311;\263j\351<@\267\322;DV\341\274\033\024\n\275\334{\342\273$h\203:@t\350<\027\036S=Z\271\"=a{:\275\002I\017\275X\313\220=XXw\275\0257\376\274qM\242=7\366\333=\273\004\031\274\314\\#<\222\214\246\274\177\246\206\274\010\375\377<\231J\262\275\010Z\353<\023A\330<\311\212D<\215\335\253<K\317\271;\212\330q\275\341\t\216<d4\305\273\032\243\323\273\333\230\332=r\365r\275.Q\252<-\213\212=\266\025\366;\'t\336\274\'TZ<\232\"\000=\225\205/\275\265M\236<l\264\332\275\311\302\265\275]s8<\260K\207=|\3416\275\352\214%;\014\3447\274w\030\357;\335\314S=\033\241\241;\203@\212<z\023\204\275\232\321[\275\271\206\246:\036O-\275\003\256\367\274\030\241_\275\027\316\310=\324\024\353;\273\276\033;sP\201=\026M\032\275\037\371\031\276\210\236==\024+\206\274\320\t\r\274\000\247\360\274\235s\336<Ac\274\275vi\031<d\271\235;cu3=3\037\250<\3242!\275\323s\033=\271^\270\274\234\273\206\274m\267\331<\0325\305<\243h\035=@\204q\274\214\030\242=\246K\202\274\250\233\030=\231\220\321\274\003\240\000<yh\273\275\272\237\322\274\277v\036<?4v=\207\245\247\275\214\017B\274\246\246;\275\302I\303\272\177\323{\2744 4\274\020BC=/\214\270<\303\244\337<\001U4=\207;S\274\3644\207\2744\357~=_U==\321\243\221\275\030\322(\274\'\367\356<%\375w\275t\222\230<*\363\206==\265\'\276\225\255\371<\2329\267\274\027%\355\2754\263\224\2727x,>Z^\216\274\221\235\265\273s\313\000=\0373\317<D\007\026<_\310m\274\214xm=\265D\345;d%\314<\001\274e\274A\037&<\222\206\251<Y\335\221\274\300\312 <;\033\206=P+D=)\317d\275\314\365\016=I+\253\275<e\327\274%\304\014=\265D\377\274\342\322\032\274\335A\232=\272\233\262<8\207\261<\377\026\275=\337\310\225;n\322\362<\004\'\031=\203\227\034;\231\332M=\022\216W<\216\232\t=\214=\343=.tp=)24<\315\330\357\271g\'H\274M\320\010;\025\272\024\275\343\201\"\273n\2776\275l\213\220<et\217\274\3647 <\355\372\\\274\320\nb\275\355\003D\275ZHQ=-Iw\275\270\251\014=Ik\240\275\033\360\366<\347\244k\275\264\233$;H\2276\274k\003\207<1<\312\274\2548)\275\307\251\007;a\361}=\303\r\036<\020\330\202\275\022\035\271\275Aa&<\350n\331=\"T\321\275\356\365\026=\220\224\272\2731)y\274\367V\240\274\023\331D=\375\357\256<\t\352\026=~\364\360\275/\346\376=\017\300\265<@\340d;\326\352\302\275r\3067\275\222\020\244\273<J\361<\\y\252=\215yg\2750\334\024=\263\207O=\344Wx\275\267|\352\275X\004&\273xeR\274\247v\020\276Ms\354\274\313\003\345=\345r\273\274[2\323<\\kW<w\016\237=\334\333s=x\342%\275bCh<\303\2219\275\210\014)\274\3141\265\274\3516H\275\005\003e=\260\377\273<C\240X\275\022\332\246\275o\364\007<\325\243\257;e\235\241\274\351hB<_\337\330\274b\221\244:\"\031S\274v\014\232<\353\232\353\275Xh@=\277f\263<\014vb=\037=&=>\300\'=;\203\224\274\305}\363<\372J\244\273\036cY=^\310\357\273\262\023\203\275\354\237D\274l\301\017=\027\231^=\253\265\214\275#\177\3469\351BZ<>X\021<\031\226\024<v)\265\274K\212O\274 /\003=\325\340\271\2753\\\364\274\301\005\034=S6\303<\367t\261\275M\000\333\275\255i\203\274#\327\215\274k&\267\274\316\377%\275(\266Y\275\356\t\007<e\335\r\274/\006\373\274\247\336d=\242\n-\275]\235\243=\367\000\232<\234\'\354\274\004\253\323\274\315\220\322\274\267\375\233<\211\311\225=05\306<\024\277\t={@\361\274\336qG=\3700\031\275B97<o\323\305;\227wD\2752\243R=\204[\266;nT\203=\231Qa\274\3446U\274\2335-<\352\036\227;\024T\350\274\275M\037=\\\220\037\276\327\232\340<(\376a\275\362}\020=\255\370\326\274\325\016\250<\273b\205\274\303\264\202\274OV[\2749\3570=N\201\005;E\352\256\275>-\\\274!\256\224\2756\375\343<\017e\033\276:\237\000\274$I\222\274\032\341y<\000\007\014\275\273h=<\341\360\345\274\264a\226=!u>\275\000\261\024>tFy\274\211\341.=\034V\214\275\252^X=M\257D\275\024#\320<r\3742\275\273]\261\275d\\\226=\215\342\244=F\255Z\2740\207\007\276<\370W<\246\213\260\274\350\371u\276f\265j\274\010\277\251=\255\233F\274E\002\n=\"X!=\273\007\234\273\310\276\022=\201\032\030\275\\\360\035<\237\217\345\274!/\261\274\240\351\337\274\265D\010\275/\265t=\307\246\001\273U{\337\275\3027\003\276\252\252\373\274E\262\264<\307M\034\275\366J\000\275\375J\244<-K\204<\370\315\007\274\302Y~=X\311\211\274|\022\212\273\ti\254=X\020\200<\333\334\273;\030i$\271\331\377\010\275P\\\270;\020~+<\255\324\221<\342q\354\274\360\230\031\275\2128U<\002\310\017\275\212\004\305;\025\256\002>\307\345\371\272Y\025\335<Q\230\350\273(\023\350\273\237\007\227\275d\367G\275\274>\014=G\324]\275\3700\314\275\220\303\376\273\250\240\243<i\225I\275\010\361 \276\332\262\264\273\']a;\367\355\035=\241$/\274r\271\227\275\370\207\t=\2505G\274\017\200/\275\214~-=\222#\274\274\307\3073<sO\216<^\251m\2753\252\310\275I\014\330<\222\305\332\274l%\357=/k\343<y\350\307\2732\343e\275Z\323\242<-\221@=G\275\006=\035P:\274\361#\350\274\1777\215=\212\236\006>\274\325\236=\242\310\277\274\215\343K=O\346\241\274\212\327\232\274\233\010K\273\355\352\333<\276\002_\276c\347K<\344V\302<\037\360I\275\243\034\212\275\3263\t=\303\267\005\275\264{\t\275K\300\241\274\265\270\265<Q~S\275\343\027\303\275\\\246\244\274q\354\360\275\'nS<\270\225\014\276\337\310E\275\2477\000\275\324N\214\275~\232\210\275\006\037>\274\036_\313\274\327\311\236=\n\246\216\275\232\000\245<\310y\271<\223j\201\274\261\'\367<\031\300+=\336\247`\275\316\354\203=\032\254\271\275!\313\206\275\237cC=\000\327\360=\246\376\207\275\021k\354\275\235\315\017=Q\0353\275\253?Y\276\213\202\210<\330\'6=`T\033\273gPP=\376\r\305<\261\307\315\274)\253\232=>\335\033=\221EF\275\336 \034\275\036i\324\275\010\234/=6\'\037<\036?\223=4\302&\273\">\370\274\017?\226\275 h\234\275\025\215\025<\243\355\231\275u_\010=\230\363\231<\270fC=\205\332\212=\224\224Q=\265\203\325\275w\257%\276\356\354\232<\221\256\021:\255\360m\274\037{t\275%\030`\275F\222\001\275\003\2026<\205\333\220\275\305]\215\274\310(>\275\306\310K\274x\034W\275\271\216a\275\302\036)=a\311\313;\300\242\346<\206n\010\275\305\302b</J\303\273\222s\001\275eW\032=l:\002<7\277\033\275\021o\317</\346\022=\271j\023\275\200]P\276|\3315\274\027\350\230<\360\257\275<\'\236\331<jn\347\275P\0268\274v!\322\272>K\260\275\211\304)=\225\317w\274sAn\274;\351{<\331\210\210\275A\344<\274\213#>=\210o\031=\221\264\224=\'\tE\274*\316!=\221\232==\300\207\215=\354\255n\275\014\230\027=N(\376<\240\031\014\275K\255\005=\372\372\307=\234\256\234=. \274\275\022d\025\274 \273\355\274*y\312\275\304v\246<Nz\005=\215\223j\2762S\212\2755\310\230\274\033I\314<\236\247+\275Y<B<F\n5\275\035Q\344\275\r\331\363\273I\374,\275\0302b\275\203\304\371\274T\352I\274l\021I\276gT\242\275wd\317\275\020\270\020<\227\310\211\275)\265\270\274\275\300\206\275\213\001\261\273\224\235\004\275\003\037\260=n\375\366<L\262\020\2764\234\360<\2544\356\275\252|[=\\\307\\=s\256\031\275\365D->\'&\236;\026\354\375\275\340\357\313=\244tk=+\274\254;77|\275\023!\020;@\234\342\274]/B\276\233U\256=hM\247\275}|\227=[\361:\275\374\267\265=b\203I\275\361\251t=A\373\311=S\237\001\275\t\312T\275d\n\261\275\030\221\376\2746\230\222=gi\344<YBz\274\325\235J=Y\2444=\257u\244\275\275u\237<\014\261!\275\n\3321\274\025\360\367<(j\301;r\333d=\010cG=\t\211\243\275%`&\276\355\216\245=\255\336\346\273\217\005Q\275QL\335\275\213\275m\275\336.\332\274\010\255\236=\004Q`\276\2437\225\274\366\247\343\274R{-\275\211I\213\275\204\013V\275.\254|\275\220\236;=k\306o<\255\025>\275\004\317\016:\005\372\267=\372\370\210\275Z\305\255=C\"%<*\023\240=\025\360\236<2\324H=|oP\273dVn\276J\273\014<\321]\322\274^\275D=\000\242a\275\017\020`\275~C\021=\034v\223\274\314\001\271\274\373}\002\274\014\253\235\274\266\365[\275\264\024\234\274\320\335\266\275\232\214\250\273K\271\020\274\231\227\002=\006\257\377\272\243d\255;nB\014=~\375\213=,\362\227=h\275;\274\010\225/8\333\315\217=HOs7\007\233\013<\326\307\222\274$<\320<\237<\300\275\355\247\216=n(\247\272\037\251\323\275$\001w\2745\227x=d)\207\276|\364\225\275S^h=\257\355\341\274\021\206\330=\014\rs=<\220s\274\013\254@\2757\314j<\336\350:\274\256t@\275\037L*=\r\352\334;S,